#include "magic_wand_model_data.h"

// We need to keep the data array aligned on some architectures.
#ifdef __has_attribute
#define HAVE_ATTRIBUTE(x) __has_attribute(x)
#else
#define HAVE_ATTRIBUTE(x) 0
#endif
#if HAVE_ATTRIBUTE(aligned) || (defined(__GNUC__) && !defined(__clang__))
#define DATA_ALIGN_ATTRIBUTE __attribute__((aligned(4)))
#else
#define DATA_ALIGN_ATTRIBUTE
#endif

const unsigned char g_magic_wand_model_data[] DATA_ALIGN_ATTRIBUTE = {
  0x1c, 0x00, 0x00, 0x00, 0x54, 0x46, 0x4c, 0x33, 0x14, 0x00, 0x20, 0x00,
  0x04, 0x00, 0x08, 0x00, 0x0c, 0x00, 0x10, 0x00, 0x14, 0x00, 0x00, 0x00,
  0x18, 0x00, 0x1c, 0x00, 0x14, 0x00, 0x00, 0x00, 0x03, 0x00, 0x00, 0x00,
  0x18, 0x00, 0x00, 0x00, 0x2c, 0x00, 0x00, 0x00, 0x58, 0x01, 0x00, 0x00,
  0x2c, 0x00, 0x00, 0x00, 0x00, 0x01, 0x00, 0x00, 0x78, 0x00, 0x00, 0x00,
  0x05, 0x00, 0x00, 0x00, 0x94, 0x07, 0x00, 0x00, 0xb0, 0x06, 0x00, 0x00,
  0x4c, 0x04, 0x00, 0x00, 0x88, 0x03, 0x00, 0x00, 0x2c, 0x02, 0x00, 0x00,
  0x01, 0x00, 0x00, 0x00, 0x50, 0x01, 0x00, 0x00, 0x14, 0x00, 0x00, 0x00,
  0x58, 0x32, 0x00, 0x00, 0x54, 0x32, 0x00, 0x00, 0x74, 0x31, 0x00, 0x00,
  0xe8, 0x30, 0x00, 0x00, 0x64, 0x30, 0x00, 0x00, 0x04, 0x30, 0x00, 0x00,
  0x98, 0x2f, 0x00, 0x00, 0x48, 0x13, 0x00, 0x00, 0x34, 0x12, 0x00, 0x00,
  0x58, 0x10, 0x00, 0x00, 0xfc, 0x07, 0x00, 0x00, 0x2c, 0x32, 0x00, 0x00,
  0x28, 0x32, 0x00, 0x00, 0x24, 0x32, 0x00, 0x00, 0x20, 0x32, 0x00, 0x00,
  0x1c, 0x32, 0x00, 0x00, 0x18, 0x32, 0x00, 0x00, 0x14, 0x32, 0x00, 0x00,
  0x10, 0x32, 0x00, 0x00, 0xbc, 0x00, 0x00, 0x00, 0x01, 0x00, 0x00, 0x00,
  0x10, 0x00, 0x00, 0x00, 0x00, 0x00, 0x0a, 0x00, 0x10, 0x00, 0x0c, 0x00,
  0x08, 0x00, 0x04, 0x00, 0x0a, 0x00, 0x00, 0x00, 0x0c, 0x00, 0x00, 0x00,
  0x1c, 0x00, 0x00, 0x00, 0x20, 0x00, 0x00, 0x00, 0x0f, 0x00, 0x00, 0x00,
  0x73, 0x65, 0x72, 0x76, 0x69, 0x6e, 0x67, 0x5f, 0x64, 0x65, 0x66, 0x61,
  0x75, 0x6c, 0x74, 0x00, 0x01, 0x00, 0x00, 0x00, 0x14, 0x00, 0x00, 0x00,
  0x01, 0x00, 0x00, 0x00, 0x24, 0x00, 0x00, 0x00, 0x08, 0x00, 0x0c, 0x00,
  0x08, 0x00, 0x04, 0x00, 0x08, 0x00, 0x00, 0x00, 0x11, 0x00, 0x00, 0x00,
  0x04, 0x00, 0x00, 0x00, 0x07, 0x00, 0x00, 0x00, 0x64, 0x65, 0x6e, 0x73,
  0x65, 0x5f, 0x31, 0x00, 0x42, 0xcf, 0xff, 0xff, 0x04, 0x00, 0x00, 0x00,
  0x0c, 0x00, 0x00, 0x00, 0x63, 0x6f, 0x6e, 0x76, 0x32, 0x64, 0x5f, 0x69,
  0x6e, 0x70, 0x75, 0x74, 0x00, 0x00, 0x00, 0x00, 0x01, 0x00, 0x00, 0x00,
  0x0c, 0x00, 0x00, 0x00, 0x08, 0x00, 0x0c, 0x00, 0x04, 0x00, 0x08, 0x00,
  0x08, 0x00, 0x00, 0x00, 0x08, 0x00, 0x00, 0x00, 0x13, 0x00, 0x00, 0x00,
  0x13, 0x00, 0x00, 0x00, 0x6d, 0x69, 0x6e, 0x5f, 0x72, 0x75, 0x6e, 0x74,
  0x69, 0x6d, 0x65, 0x5f, 0x76, 0x65, 0x72, 0x73, 0x69, 0x6f, 0x6e, 0x00,
  0x92, 0xcf, 0xff, 0xff, 0x04, 0x00, 0x00, 0x00, 0x10, 0x00, 0x00, 0x00,
  0x31, 0x2e, 0x35, 0x2e, 0x30, 0x00, 0x00, 0x00, 0x00, 0x00, 0x00, 0x00,
  0x00, 0x00, 0x00, 0x00, 0x0f, 0x00, 0x00, 0x00, 0x4d, 0x4c, 0x49, 0x52,
  0x20, 0x43, 0x6f, 0x6e, 0x76, 0x65, 0x72, 0x74, 0x65, 0x64, 0x2e, 0x00,
  0x00, 0x00, 0x0e, 0x00, 0x18, 0x00, 0x04, 0x00, 0x08, 0x00, 0x0c, 0x00,
  0x10, 0x00, 0x14, 0x00, 0x0e, 0x00, 0x00, 0x00, 0x14, 0x00, 0x00, 0x00,
  0x5c, 0x00, 0x00, 0x00, 0x60, 0x00, 0x00, 0x00, 0x64, 0x00, 0x00, 0x00,
  0x84, 0x00, 0x00, 0x00, 0x12, 0x00, 0x00, 0x00, 0x88, 0x30, 0x00, 0x00,
  0x3c, 0x30, 0x00, 0x00, 0xd4, 0x2f, 0x00, 0x00, 0x50, 0x2f, 0x00, 0x00,
  0xd0, 0x2e, 0x00, 0x00, 0x5c, 0x2e, 0x00, 0x00, 0xf4, 0x2d, 0x00, 0x00,
  0xa0, 0x11, 0x00, 0x00, 0x84, 0x10, 0x00, 0x00, 0xa8, 0x0e, 0x00, 0x00,
  0xf8, 0x05, 0x00, 0x00, 0x14, 0x05, 0x00, 0x00, 0xf8, 0x03, 0x00, 0x00,
  0x4c, 0x03, 0x00, 0x00, 0xa8, 0x02, 0x00, 0x00, 0xe4, 0x01, 0x00, 0x00,
  0x20, 0x01, 0x00, 0x00, 0x84, 0x00, 0x00, 0x00, 0x01, 0x00, 0x00, 0x00,
  0x00, 0x00, 0x00, 0x00, 0x01, 0x00, 0x00, 0x00, 0x11, 0x00, 0x00, 0x00,
  0x08, 0x00, 0x00, 0x00, 0x60, 0x05, 0x00, 0x00, 0x80, 0x04, 0x00, 0x00,
  0x88, 0x03, 0x00, 0x00, 0xcc, 0x02, 0x00, 0x00, 0x40, 0x02, 0x00, 0x00,
  0x60, 0x01, 0x00, 0x00, 0xb8, 0x00, 0x00, 0x00, 0x10, 0x00, 0x00, 0x00,
  0x04, 0x00, 0x00, 0x00, 0x6d, 0x61, 0x69, 0x6e, 0x00, 0x00, 0x00, 0x00,
  0x6a, 0xff, 0xff, 0xff, 0x00, 0x00, 0x00, 0x09, 0x04, 0x00, 0x00, 0x00,
  0x1c, 0x00, 0x00, 0x00, 0x10, 0x00, 0x00, 0x00, 0x04, 0x00, 0x00, 0x00,
  0x8e, 0xd0, 0xff, 0xff, 0x00, 0x00, 0x80, 0x3f, 0x01, 0x00, 0x00, 0x00,
  0x11, 0x00, 0x00, 0x00, 0x01, 0x00, 0x00, 0x00, 0x10, 0x00, 0x00, 0x00,
  0xb4, 0xfa, 0xff, 0xff, 0x19, 0x00, 0x00, 0x00, 0x00, 0x00, 0x00, 0x19,
  0x01, 0x00, 0x00, 0x00, 0x54, 0xd0, 0xff, 0xff, 0x14, 0x00, 0x00, 0x00,
  0x12, 0x00, 0x00, 0x00, 0x18, 0x00, 0x00, 0x00, 0x40, 0x00, 0x00, 0x00,
  0x30, 0x00, 0x00, 0x00, 0x02, 0x00, 0x00, 0x00, 0x01, 0x00, 0x00, 0x00,
  0x03, 0x00, 0x00, 0x00, 0x19, 0x00, 0x00, 0x00, 0x53, 0x74, 0x61, 0x74,
  0x65, 0x66, 0x75, 0x6c, 0x50, 0x61, 0x72, 0x74, 0x69, 0x74, 0x69, 0x6f,
  0x6e, 0x65, 0x64, 0x43, 0x61, 0x6c, 0x6c, 0x3a, 0x30, 0x00, 0x00, 0x00,
  0x02, 0x00, 0x00, 0x00, 0xff, 0xff, 0xff, 0xff, 0x03, 0x00, 0x00, 0x00,
  0x10, 0xd1, 0xff, 0xff, 0x00, 0x00, 0x0e, 0x00, 0x18, 0x00, 0x08, 0x00,
  0x0c, 0x00, 0x10, 0x00, 0x07, 0x00, 0x14, 0x00, 0x0e, 0x00, 0x00, 0x00,
  0x00, 0x00, 0x00, 0x08, 0x03, 0x00, 0x00, 0x00, 0x18, 0x00, 0x00, 0x00,
  0x0c, 0x00, 0x00, 0x00, 0x04, 0x00, 0x00, 0x00, 0x54, 0xd0, 0xff, 0xff,
  0x01, 0x00, 0x00, 0x00, 0x10, 0x00, 0x00, 0x00, 0x03, 0x00, 0x00, 0x00,
  0x0f, 0x00, 0x00, 0x00, 0x07, 0x00, 0x00, 0x00, 0x01, 0x00, 0x00, 0x00,
  0xec, 0xd0, 0xff, 0xff, 0x14, 0x00, 0x00, 0x00, 0x11, 0x00, 0x00, 0x00,
  0x18, 0x00, 0x00, 0x00, 0x5c, 0x00, 0x00, 0x00, 0x4c, 0x00, 0x00, 0x00,
  0x02, 0x00, 0x00, 0x00, 0x01, 0x00, 0x00, 0x00, 0x03, 0x00, 0x00, 0x00,
  0x34, 0x00, 0x00, 0x00, 0x73, 0x65, 0x71, 0x75, 0x65, 0x6e, 0x74, 0x69,
  0x61, 0x6c, 0x2f, 0x64, 0x65, 0x6e, 0x73, 0x65, 0x5f, 0x31, 0x2f, 0x4d,
  0x61, 0x74, 0x4d, 0x75, 0x6c, 0x3b, 0x73, 0x65, 0x71, 0x75, 0x65, 0x6e,
  0x74, 0x69, 0x61, 0x6c, 0x2f, 0x64, 0x65, 0x6e, 0x73, 0x65, 0x5f, 0x31,
  0x2f, 0x42, 0x69, 0x61, 0x73, 0x41, 0x64, 0x64, 0x00, 0x00, 0x00, 0x00,
  0x02, 0x00, 0x00, 0x00, 0xff, 0xff, 0xff, 0xff, 0x03, 0x00, 0x00, 0x00,
  0xdc, 0xd0, 0xff, 0xff, 0xfe, 0xfc, 0xff, 0xff, 0x00, 0x00, 0x00, 0x08,
  0x03, 0x00, 0x00, 0x00, 0x24, 0x00, 0x00, 0x00, 0x18, 0x00, 0x00, 0x00,
  0x0c, 0x00, 0x00, 0x00, 0x00, 0x00, 0x06, 0x00, 0x08, 0x00, 0x07, 0x00,
  0x06, 0x00, 0x00, 0x00, 0x00, 0x00, 0x00, 0x01, 0x01, 0x00, 0x00, 0x00,
  0x0f, 0x00, 0x00, 0x00, 0x03, 0x00, 0x00, 0x00, 0x0e, 0x00, 0x00, 0x00,
  0x06, 0x00, 0x00, 0x00, 0x02, 0x00, 0x00, 0x00, 0x0c, 0xfc, 0xff, 0xff,
  0x09, 0x00, 0x00, 0x00, 0x00, 0x00, 0x00, 0x09, 0x01, 0x00, 0x00, 0x00,
  0xac, 0xd1, 0xff, 0xff, 0x14, 0x00, 0x00, 0x00, 0x10, 0x00, 0x00, 0x00,
  0x18, 0x00, 0x00, 0x00, 0x6c, 0x00, 0x00, 0x00, 0x5c, 0x00, 0x00, 0x00,
  0x02, 0x00, 0x00, 0x00, 0x01, 0x00, 0x00, 0x00, 0x10, 0x00, 0x00, 0x00,
  0x46, 0x00, 0x00, 0x00, 0x73, 0x65, 0x71, 0x75, 0x65, 0x6e, 0x74, 0x69,
  0x61, 0x6c, 0x2f, 0x64, 0x65, 0x6e, 0x73, 0x65, 0x2f, 0x4d, 0x61, 0x74,
  0x4d, 0x75, 0x6c, 0x3b, 0x73, 0x65, 0x71, 0x75, 0x65, 0x6e, 0x74, 0x69,
  0x61, 0x6c, 0x2f, 0x64, 0x65, 0x6e, 0x73, 0x65, 0x2f, 0x52, 0x65, 0x6c,
  0x75, 0x3b, 0x73, 0x65, 0x71, 0x75, 0x65, 0x6e, 0x74, 0x69, 0x61, 0x6c,
  0x2f, 0x64, 0x65, 0x6e, 0x73, 0x65, 0x2f, 0x42, 0x69, 0x61, 0x73, 0x41,
  0x64, 0x64, 0x00, 0x00, 0x02, 0x00, 0x00, 0x00, 0xff, 0xff, 0xff, 0xff,
  0x10, 0x00, 0x00, 0x00, 0x94, 0xd2, 0xff, 0xff, 0x00, 0x00, 0x0a, 0x00,
  0x10, 0x00, 0x04, 0x00, 0x08, 0x00, 0x0c, 0x00, 0x0a, 0x00, 0x00, 0x00,
  0x02, 0x00, 0x00, 0x00, 0x10, 0x00, 0x00, 0x00, 0x04, 0x00, 0x00, 0x00,
  0x01, 0x00, 0x00, 0x00, 0x0e, 0x00, 0x00, 0x00, 0x02, 0x00, 0x00, 0x00,
  0x0d, 0x00, 0x00, 0x00, 0x05, 0x00, 0x00, 0x00, 0xcc, 0xfc, 0xff, 0xff,
  0x16, 0x00, 0x00, 0x00, 0x00, 0x00, 0x00, 0x16, 0x01, 0x00, 0x00, 0x00,
  0x6c, 0xd2, 0xff, 0xff, 0x14, 0x00, 0x00, 0x00, 0x0f, 0x00, 0x00, 0x00,
  0x18, 0x00, 0x00, 0x00, 0x40, 0x00, 0x00, 0x00, 0x30, 0x00, 0x00, 0x00,
  0x02, 0x00, 0x00, 0x00, 0x01, 0x00, 0x00, 0x00, 0x70, 0x00, 0x00, 0x00,
  0x1a, 0x00, 0x00, 0x00, 0x73, 0x65, 0x71, 0x75, 0x65, 0x6e, 0x74, 0x69,
  0x61, 0x6c, 0x2f, 0x66, 0x6c, 0x61, 0x74, 0x74, 0x65, 0x6e, 0x2f, 0x52,
  0x65, 0x73, 0x68, 0x61, 0x70, 0x65, 0x00, 0x00, 0x02, 0x00, 0x00, 0x00,
  0xff, 0xff, 0xff, 0xff, 0x70, 0x00, 0x00, 0x00, 0x40, 0xd2, 0xff, 0xff,
  0x62, 0xfe, 0xff, 0xff, 0x00, 0x00, 0x00, 0x05, 0x01, 0x00, 0x00, 0x00,
  0x38, 0x00, 0x00, 0x00, 0x2c, 0x00, 0x00, 0x00, 0x14, 0x00, 0x00, 0x00,
  0x00, 0x00, 0x0e, 0x00, 0x14, 0x00, 0x00, 0x00, 0x10, 0x00, 0x0c, 0x00,
  0x08, 0x00, 0x04, 0x00, 0x0e, 0x00, 0x00, 0x00, 0x03, 0x00, 0x00, 0x00,
  0x01, 0x00, 0x00, 0x00, 0x03, 0x00, 0x00, 0x00, 0x01, 0x00, 0x00, 0x00,
  0x01, 0x00, 0x00, 0x00, 0x0d, 0x00, 0x00, 0x00, 0x01, 0x00, 0x00, 0x00,
  0x0c, 0x00, 0x00, 0x00, 0x0c, 0xd3, 0xff, 0xff, 0x14, 0x00, 0x00, 0x00,
  0x0e, 0x00, 0x00, 0x00, 0x20, 0x00, 0x00, 0x00, 0x58, 0x00, 0x00, 0x00,
  0x40, 0x00, 0x00, 0x00, 0x04, 0x00, 0x00, 0x00, 0x01, 0x00, 0x00, 0x00,
  0x07, 0x00, 0x00, 0x00, 0x01, 0x00, 0x00, 0x00, 0x10, 0x00, 0x00, 0x00,
  0x22, 0x00, 0x00, 0x00, 0x73, 0x65, 0x71, 0x75, 0x65, 0x6e, 0x74, 0x69,
  0x61, 0x6c, 0x2f, 0x6d, 0x61, 0x78, 0x5f, 0x70, 0x6f, 0x6f, 0x6c, 0x69,
  0x6e, 0x67, 0x32, 0x64, 0x5f, 0x31, 0x2f, 0x4d, 0x61, 0x78, 0x50, 0x6f,
  0x6f, 0x6c, 0x00, 0x00, 0x04, 0x00, 0x00, 0x00, 0xff, 0xff, 0xff, 0xff,
  0x07, 0x00, 0x00, 0x00, 0x01, 0x00, 0x00, 0x00, 0x10, 0x00, 0x00, 0x00,
  0xf8, 0xd2, 0xff, 0xff, 0x3e, 0xfe, 0xff, 0xff, 0x00, 0x00, 0x00, 0x01,
  0x24, 0x00, 0x00, 0x00, 0x18, 0x00, 0x00, 0x00, 0x04, 0x00, 0x00, 0x00,
  0x30, 0xfe, 0xff, 0xff, 0x01, 0x00, 0x00, 0x00, 0x01, 0x00, 0x00, 0x00,
  0x00, 0x00, 0x00, 0x01, 0x01, 0x00, 0x00, 0x00, 0x0c, 0x00, 0x00, 0x00,
  0x03, 0x00, 0x00, 0x00, 0x0b, 0x00, 0x00, 0x00, 0x09, 0x00, 0x00, 0x00,
  0x03, 0x00, 0x00, 0x00, 0xb4, 0xd3, 0xff, 0xff, 0x14, 0x00, 0x00, 0x00,
  0x0d, 0x00, 0x00, 0x00, 0x20, 0x00, 0x00, 0x00, 0x94, 0x00, 0x00, 0x00,
  0x7c, 0x00, 0x00, 0x00, 0x04, 0x00, 0x00, 0x00, 0x01, 0x00, 0x00, 0x00,
  0x15, 0x00, 0x00, 0x00, 0x01, 0x00, 0x00, 0x00, 0x10, 0x00, 0x00, 0x00,
  0x5d, 0x00, 0x00, 0x00, 0x73, 0x65, 0x71, 0x75, 0x65, 0x6e, 0x74, 0x69,
  0x61, 0x6c, 0x2f, 0x63, 0x6f, 0x6e, 0x76, 0x32, 0x64, 0x5f, 0x31, 0x2f,
  0x52, 0x65, 0x6c, 0x75, 0x3b, 0x73, 0x65, 0x71, 0x75, 0x65, 0x6e, 0x74,
  0x69, 0x61, 0x6c, 0x2f, 0x63, 0x6f, 0x6e, 0x76, 0x32, 0x64, 0x5f, 0x31,
  0x2f, 0x42, 0x69, 0x61, 0x73, 0x41, 0x64, 0x64, 0x3b, 0x73, 0x65, 0x71,
  0x75, 0x65, 0x6e, 0x74, 0x69, 0x61, 0x6c, 0x2f, 0x63, 0x6f, 0x6e, 0x76,
  0x32, 0x64, 0x5f, 0x31, 0x2f, 0x43, 0x6f, 0x6e, 0x76, 0x32, 0x44, 0x3b,
  0x63, 0x6f, 0x6e, 0x76, 0x32, 0x64, 0x5f, 0x31, 0x2f, 0x62, 0x69, 0x61,
  0x73, 0x00, 0x00, 0x00, 0x04, 0x00, 0x00, 0x00, 0xff, 0xff, 0xff, 0xff,
  0x15, 0x00, 0x00, 0x00, 0x01, 0x00, 0x00, 0x00, 0x10, 0x00, 0x00, 0x00,
  0xc4, 0xd4, 0xff, 0xff, 0x00, 0x00, 0x0e, 0x00, 0x1a, 0x00, 0x08, 0x00,
  0x0c, 0x00, 0x10, 0x00, 0x07, 0x00, 0x14, 0x00, 0x0e, 0x00, 0x00, 0x00,
  0x00, 0x00, 0x00, 0x05, 0x01, 0x00, 0x00, 0x00, 0x3c, 0x00, 0x00, 0x00,
  0x30, 0x00, 0x00, 0x00, 0x14, 0x00, 0x00, 0x00, 0x00, 0x00, 0x0e, 0x00,
  0x18, 0x00, 0x17, 0x00, 0x10, 0x00, 0x0c, 0x00, 0x08, 0x00, 0x04, 0x00,
  0x0e, 0x00, 0x00, 0x00, 0x03, 0x00, 0x00, 0x00, 0x03, 0x00, 0x00, 0x00,
  0x03, 0x00, 0x00, 0x00, 0x03, 0x00, 0x00, 0x00, 0x00, 0x00, 0x00, 0x01,
  0x01, 0x00, 0x00, 0x00, 0x0b, 0x00, 0x00, 0x00, 0x01, 0x00, 0x00, 0x00,
  0x0a, 0x00, 0x00, 0x00, 0x2c, 0xff, 0xff, 0xff, 0x11, 0x00, 0x00, 0x00,
  0x00, 0x00, 0x00, 0x11, 0x01, 0x00, 0x00, 0x00, 0xcc, 0xd4, 0xff, 0xff,
  0x14, 0x00, 0x00, 0x00, 0x0c, 0x00, 0x00, 0x00, 0x20, 0x00, 0x00, 0x00,
  0x58, 0x00, 0x00, 0x00, 0x40, 0x00, 0x00, 0x00, 0x04, 0x00, 0x00, 0x00,
  0x01, 0x00, 0x00, 0x00, 0x15, 0x00, 0x00, 0x00, 0x01, 0x00, 0x00, 0x00,
  0x08, 0x00, 0x00, 0x00, 0x20, 0x00, 0x00, 0x00, 0x73, 0x65, 0x71, 0x75,
  0x65, 0x6e, 0x74, 0x69, 0x61, 0x6c, 0x2f, 0x6d, 0x61, 0x78, 0x5f, 0x70,
  0x6f, 0x6f, 0x6c, 0x69, 0x6e, 0x67, 0x32, 0x64, 0x2f, 0x4d, 0x61, 0x78,
  0x50, 0x6f, 0x6f, 0x6c, 0x00, 0x00, 0x00, 0x00, 0x04, 0x00, 0x00, 0x00,
  0xff, 0xff, 0xff, 0xff, 0x15, 0x00, 0x00, 0x00, 0x01, 0x00, 0x00, 0x00,
  0x08, 0x00, 0x00, 0x00, 0xa0, 0xd5, 0xff, 0xff, 0x00, 0x00, 0x0e, 0x00,
  0x14, 0x00, 0x00, 0x00, 0x08, 0x00, 0x0c, 0x00, 0x07, 0x00, 0x10, 0x00,
  0x0e, 0x00, 0x00, 0x00, 0x00, 0x00, 0x00, 0x01, 0x30, 0x00, 0x00, 0x00,
  0x24, 0x00, 0x00, 0x00, 0x10, 0x00, 0x00, 0x00, 0x0c, 0x00, 0x10, 0x00,
  0x00, 0x00, 0x04, 0x00, 0x08, 0x00, 0x0f, 0x00, 0x0c, 0x00, 0x00, 0x00,
  0x01, 0x00, 0x00, 0x00, 0x01, 0x00, 0x00, 0x00, 0x00, 0x00, 0x00, 0x01,
  0x01, 0x00, 0x00, 0x00, 0x0a, 0x00, 0x00, 0x00, 0x03, 0x00, 0x00, 0x00,
  0x00, 0x00, 0x00, 0x00, 0x08, 0x00, 0x00, 0x00, 0x04, 0x00, 0x00, 0x00,
  0x0c, 0x00, 0x10, 0x00, 0x0b, 0x00, 0x00, 0x00, 0x0c, 0x00, 0x04, 0x00,
  0x0c, 0x00, 0x00, 0x00, 0x03, 0x00, 0x00, 0x00, 0x00, 0x00, 0x00, 0x03,
  0x01, 0x00, 0x00, 0x00, 0xac, 0xd5, 0xff, 0xff, 0x14, 0x00, 0x00, 0x00,
  0x0b, 0x00, 0x00, 0x00, 0x20, 0x00, 0x00, 0x00, 0x8c, 0x00, 0x00, 0x00,
  0x74, 0x00, 0x00, 0x00, 0x04, 0x00, 0x00, 0x00, 0x01, 0x00, 0x00, 0x00,
  0x40, 0x00, 0x00, 0x00, 0x03, 0x00, 0x00, 0x00, 0x08, 0x00, 0x00, 0x00,
  0x55, 0x00, 0x00, 0x00, 0x73, 0x65, 0x71, 0x75, 0x65, 0x6e, 0x74, 0x69,
  0x61, 0x6c, 0x2f, 0x63, 0x6f, 0x6e, 0x76, 0x32, 0x64, 0x2f, 0x52, 0x65,
  0x6c, 0x75, 0x3b, 0x73, 0x65, 0x71, 0x75, 0x65, 0x6e, 0x74, 0x69, 0x61,
  0x6c, 0x2f, 0x63, 0x6f, 0x6e, 0x76, 0x32, 0x64, 0x2f, 0x42, 0x69, 0x61,
  0x73, 0x41, 0x64, 0x64, 0x3b, 0x73, 0x65, 0x71, 0x75, 0x65, 0x6e, 0x74,
  0x69, 0x61, 0x6c, 0x2f, 0x63, 0x6f, 0x6e, 0x76, 0x32, 0x64, 0x2f, 0x43,
  0x6f, 0x6e, 0x76, 0x32, 0x44, 0x3b, 0x63, 0x6f, 0x6e, 0x76, 0x32, 0x64,
  0x2f, 0x62, 0x69, 0x61, 0x73, 0x00, 0x00, 0x00, 0x04, 0x00, 0x00, 0x00,
  0xff, 0xff, 0xff, 0xff, 0x40, 0x00, 0x00, 0x00, 0x03, 0x00, 0x00, 0x00,
  0x08, 0x00, 0x00, 0x00, 0xcc, 0xd5, 0xff, 0xff, 0xae, 0xd6, 0xff, 0xff,
  0x04, 0x00, 0x00, 0x00, 0x00, 0x08, 0x00, 0x00, 0xef, 0x30, 0x77, 0xbe,
  0x15, 0xa7, 0x95, 0xbe, 0xd6, 0x01, 0xbd, 0xbd, 0x42, 0xd0, 0x2b, 0xbe,
  0xb2, 0xc6, 0xf8, 0xbb, 0xea, 0x26, 0xa3, 0x3d, 0xb7, 0x11, 0x01, 0xbd,
  0xe8, 0x04, 0x72, 0xbe, 0xd4, 0x5a, 0x3f, 0xbe, 0x32, 0x23, 0x22, 0xbf,
  0x76, 0x9a, 0xac, 0xbd, 0x28, 0x3b, 0xfa, 0xbd, 0x64, 0x53, 0x62, 0xbd,
  0x58, 0x9f, 0x91, 0xbe, 0x29, 0xe0, 0xcd, 0x3d, 0x55, 0x2c, 0x6d, 0xbc,
  0x47, 0x9f, 0x29, 0xbd, 0xdb, 0xe5, 0x0b, 0xbf, 0xbb, 0x39, 0xba, 0xbd,
  0xd6, 0xe4, 0x24, 0xbd, 0xc9, 0x46, 0x9f, 0xbd, 0xdf, 0xcd, 0x1d, 0x3d,
  0x2e, 0x3a, 0x4e, 0xbb, 0x2d, 0x4d, 0x45, 0x3f, 0x8e, 0x26, 0xe7, 0x3e,
  0xf5, 0xea, 0xa7, 0x3d, 0x2a, 0xd1, 0x96, 0x3e, 0x65, 0xea, 0xbc, 0x3e,
  0xa1, 0xc3, 0x55, 0xbd, 0x0a, 0x15, 0x7f, 0x3d, 0x5f, 0xf3, 0x0c, 0xbc,
  0x99, 0x26, 0x55, 0x3e, 0x05, 0xf5, 0x8b, 0xbe, 0xb4, 0xb7, 0xb0, 0xbd,
  0xfa, 0x47, 0x05, 0xbe, 0x12, 0xfb, 0x11, 0xbe, 0x1c, 0x21, 0x88, 0xbe,
  0x8d, 0x7d, 0xbf, 0xbe, 0x84, 0xe9, 0xfb, 0xbd, 0x14, 0x0c, 0x08, 0xbf,
  0xe9, 0x62, 0x6e, 0x3d, 0x75, 0xbc, 0xf5, 0xbc, 0xb1, 0x3c, 0x85, 0x3d,
  0xb6, 0x63, 0xae, 0xba, 0xac, 0x80, 0xb9, 0xbd, 0xd0, 0x9f, 0x5a, 0x3d,
  0xb7, 0x42, 0x3b, 0xbf, 0x2b, 0xbf, 0xd1, 0x3d, 0xc4, 0xeb, 0xaa, 0x3d,
  0xd6, 0x5d, 0x1f, 0xbe, 0xb6, 0xa2, 0x06, 0xbe, 0xd6, 0xd9, 0x58, 0x3d,
  0xd0, 0x2d, 0xa4, 0xbd, 0x56, 0xbf, 0x59, 0xbe, 0x97, 0xdc, 0x13, 0x3d,
  0x49, 0xf3, 0x0f, 0xbd, 0x08, 0xce, 0x29, 0x3e, 0x5a, 0xc3, 0xe1, 0x3e,
  0xb5, 0x2e, 0xf1, 0x3b, 0xfb, 0x40, 0x14, 0x3e, 0x83, 0x38, 0x0e, 0xbd,
  0xae, 0x49, 0x84, 0xbd, 0x4b, 0xda, 0x76, 0x3d, 0x8a, 0x9c, 0x3f, 0x3d,
  0xde, 0x25, 0xbe, 0xbd, 0xb3, 0xda, 0x56, 0xbc, 0x3b, 0x79, 0xf2, 0x3d,
  0x2e, 0x79, 0x87, 0xbe, 0x70, 0xbb, 0x89, 0x3d, 0xb2, 0x98, 0x28, 0x3f,
  0x7f, 0x13, 0x63, 0xbb, 0xdd, 0x9d, 0xc9, 0x3e, 0xcc, 0x9d, 0x75, 0xbd,
  0xfe, 0xe4, 0x3a, 0xbd, 0x1c, 0x97, 0xae, 0xbd, 0x40, 0x2c, 0xce, 0xbe,
  0xa6, 0x69, 0x97, 0xbd, 0x25, 0x98, 0x2b, 0xbd, 0x7d, 0x2a, 0x37, 0xbd,
  0x69, 0x58, 0xf2, 0xbd, 0x5e, 0x65, 0x56, 0x3d, 0x54, 0x36, 0x8f, 0xbe,
  0x8a, 0x7c, 0x52, 0xbe, 0x6e, 0x2d, 0x5b, 0xbe, 0x97, 0xad, 0x19, 0xbd,
  0x11, 0x26, 0x02, 0x3b, 0x73, 0xd8, 0x88, 0xbd, 0xb3, 0x44, 0xd0, 0x3c,
  0xe9, 0x2f, 0x98, 0x3d, 0xfa, 0xe5, 0x75, 0xbe, 0x0d, 0xfd, 0xfe, 0xbd,
  0xc2, 0xd5, 0xb0, 0xbd, 0xda, 0xc7, 0x52, 0xbd, 0x28, 0xe9, 0x53, 0xbd,
  0x87, 0xa4, 0x78, 0xbd, 0xde, 0x35, 0xff, 0x3d, 0x48, 0x27, 0x41, 0xbe,
  0x05, 0xe9, 0x03, 0xbf, 0xf7, 0x10, 0x25, 0xbe, 0x1f, 0x9f, 0x67, 0xbe,
  0x58, 0xb0, 0x1a, 0xbf, 0x1f, 0x4f, 0xfc, 0xbe, 0xb2, 0x4b, 0xfc, 0xbe,
  0x8c, 0xa8, 0x9e, 0xbc, 0x96, 0x5e, 0xe7, 0x3d, 0x74, 0xb1, 0x87, 0x3e,
  0xba, 0x70, 0x56, 0xbc, 0x7f, 0x68, 0x92, 0xbc, 0x60, 0x9c, 0x91, 0xbd,
  0x91, 0x55, 0xd3, 0x3c, 0x0f, 0x43, 0x10, 0x3e, 0x87, 0x87, 0x17, 0x3d,
  0xa2, 0x38, 0xa5, 0xbd, 0x8a, 0x77, 0x3d, 0xbe, 0x90, 0x63, 0xe9, 0x3c,
  0x12, 0x09, 0x10, 0x3e, 0x0a, 0xd4, 0xb9, 0xbc, 0xc5, 0xbd, 0xe7, 0x3e,
  0x83, 0x1e, 0xd9, 0xbd, 0xe6, 0x2b, 0x17, 0x3f, 0x03, 0xce, 0x00, 0xbe,
  0x97, 0xf6, 0x09, 0xbe, 0x8d, 0xe4, 0x22, 0xbe, 0xd5, 0x0a, 0x03, 0xbe,
  0xcb, 0xef, 0x07, 0xbd, 0xb8, 0x95, 0x07, 0xbf, 0x17, 0x1f, 0xf3, 0xbc,
  0xf2, 0x55, 0x37, 0xbf, 0x3d, 0x85, 0xd3, 0xbd, 0xfb, 0xf8, 0xd9, 0xbe,
  0xd7, 0x26, 0x4a, 0xbf, 0x3c, 0x0b, 0xb7, 0xbe, 0x11, 0xb2, 0x22, 0x3d,
  0xdb, 0xaa, 0xfc, 0xbd, 0x61, 0x87, 0x10, 0xbe, 0x69, 0xb4, 0xb4, 0xbd,
  0x4c, 0xbf, 0x45, 0x3d, 0xa1, 0x92, 0x75, 0xbd, 0x47, 0xa0, 0xf3, 0x3b,
  0x2f, 0x58, 0x18, 0x3e, 0xd0, 0xdd, 0xb8, 0x3e, 0xf0, 0xe6, 0x1b, 0xbd,
  0x21, 0xb6, 0x3b, 0xbf, 0x06, 0x69, 0x20, 0x3e, 0xa4, 0xbc, 0x7f, 0x3d,
  0xf1, 0x4b, 0x08, 0xbe, 0x46, 0xb3, 0x05, 0xbe, 0xfe, 0x97, 0xf7, 0xbd,
  0x31, 0x78, 0x34, 0x3e, 0xc6, 0xe7, 0x0f, 0xbe, 0x7f, 0x1f, 0x96, 0xbe,
  0x48, 0xe9, 0x65, 0xbe, 0x81, 0xd4, 0xbc, 0x3c, 0x8a, 0xbc, 0xa2, 0xbc,
  0x62, 0x23, 0xbb, 0xbd, 0xa5, 0xc1, 0x54, 0x3c, 0x76, 0x29, 0x9e, 0x3d,
  0xd3, 0x53, 0x09, 0x3d, 0x88, 0x00, 0x60, 0xbe, 0xa2, 0x31, 0x03, 0x3e,
  0xe6, 0x97, 0xdf, 0xbd, 0x9a, 0x09, 0xb0, 0xbe, 0x11, 0x7f, 0xb0, 0xbe,
  0xca, 0x8b, 0x48, 0xbe, 0x50, 0xf8, 0x20, 0xbe, 0x41, 0x6d, 0x41, 0x3e,
  0x07, 0x83, 0xbe, 0xbd, 0x7f, 0xf6, 0x9f, 0x3e, 0x3c, 0x12, 0x56, 0x3d,
  0xeb, 0x82, 0xe0, 0xbc, 0x49, 0x0a, 0xd0, 0xbd, 0xba, 0xcb, 0x70, 0x3d,
  0x4d, 0xa6, 0x3d, 0xbe, 0x52, 0x20, 0x7f, 0x3e, 0x2b, 0xde, 0x78, 0xbe,
  0xa2, 0x0b, 0x23, 0x3d, 0x75, 0x92, 0x6e, 0xbd, 0x9c, 0x45, 0xc2, 0x3d,
  0xdd, 0x2f, 0x89, 0x3b, 0x5e, 0xa5, 0x51, 0x3d, 0xa2, 0x0f, 0x12, 0xbe,
  0xcc, 0x49, 0xf2, 0x3d, 0x7d, 0xb3, 0x43, 0xbe, 0xb2, 0xd1, 0x70, 0xbe,
  0xd7, 0x3d, 0xd1, 0xbd, 0x6c, 0x22, 0x18, 0x3e, 0x09, 0x4a, 0xbc, 0x3e,
  0xde, 0xa7, 0x22, 0x3c, 0x01, 0x3d, 0x51, 0x3e, 0x35, 0xea, 0x24, 0x3d,
  0xe7, 0xbf, 0xa1, 0x3e, 0x31, 0xf7, 0xbd, 0xbc, 0x7f, 0x84, 0x3c, 0x3e,
  0x4a, 0xe7, 0x14, 0xbe, 0x50, 0xc7, 0x2f, 0xbd, 0x8c, 0xb0, 0x69, 0x3c,
  0x4b, 0x91, 0x80, 0xbd, 0xf8, 0xd4, 0x3d, 0x3d, 0xda, 0x41, 0x0b, 0x3f,
  0xb7, 0xf3, 0x8c, 0x3d, 0x7a, 0xe4, 0xcf, 0x3d, 0xf3, 0x16, 0x1c, 0x3f,
  0x81, 0xf3, 0x64, 0xbd, 0xfd, 0x47, 0x84, 0x3d, 0xe1, 0xb1, 0xaf, 0xbd,
  0x57, 0xca, 0x65, 0x3c, 0x84, 0x69, 0x88, 0xbe, 0x44, 0xa6, 0xa9, 0x3d,
  0x76, 0x9e, 0x61, 0xbc, 0x2d, 0xa6, 0xa6, 0xbd, 0x87, 0xf5, 0xe6, 0xbd,
  0x32, 0x8d, 0xc2, 0x3c, 0x9e, 0x20, 0x9e, 0xbd, 0xbe, 0x94, 0x81, 0x3c,
  0x00, 0xca, 0xb5, 0xbe, 0x70, 0xce, 0x2d, 0x3c, 0x73, 0x23, 0x95, 0x3b,
  0x3a, 0x6f, 0x02, 0xbe, 0x82, 0xb2, 0x9e, 0xbd, 0x3c, 0xd4, 0x92, 0xbd,
  0x9d, 0x41, 0xd5, 0xbd, 0x48, 0xf6, 0xc7, 0xbe, 0x62, 0x66, 0x87, 0xbe,
  0x91, 0xb8, 0x6f, 0x3b, 0x3e, 0x3c, 0xe8, 0x3d, 0xd1, 0x6a, 0x21, 0x3e,
  0x73, 0x03, 0x45, 0x3d, 0x2b, 0x55, 0x13, 0xbe, 0x2e, 0xe3, 0x96, 0xbc,
  0x26, 0x35, 0xba, 0xbb, 0xcf, 0x05, 0x04, 0xbe, 0x08, 0x83, 0xcd, 0xbc,
  0xd2, 0x2c, 0x18, 0x3e, 0x78, 0x7a, 0x1a, 0x3f, 0x12, 0xdc, 0x91, 0xbc,
  0x3d, 0xf7, 0x8e, 0xbe, 0xdf, 0xeb, 0x64, 0xbd, 0xae, 0x48, 0x33, 0x3d,
  0xbd, 0x8f, 0x01, 0xbe, 0x99, 0xa5, 0x9f, 0x3d, 0x9b, 0xd8, 0x1f, 0xbe,
  0x3a, 0x25, 0x2e, 0xbe, 0xe2, 0xb6, 0x16, 0xbc, 0x20, 0x3d, 0xa3, 0xbe,
  0x9a, 0x57, 0x67, 0xbd, 0x8b, 0x9e, 0x4b, 0x3f, 0x9f, 0x31, 0x60, 0xbd,
  0xf4, 0xb6, 0x8e, 0x3e, 0x8f, 0xcb, 0x02, 0xbe, 0x85, 0xdd, 0xad, 0xbe,
  0x78, 0x54, 0xdf, 0xbd, 0xf0, 0x05, 0x8f, 0xbe, 0xb9, 0x01, 0x20, 0xbd,
  0x64, 0xc5, 0x85, 0x3e, 0x13, 0x2d, 0x7c, 0xbd, 0x8b, 0x39, 0x06, 0xbe,
  0x87, 0x19, 0x10, 0xbe, 0x71, 0x24, 0x06, 0xbc, 0x5f, 0xf6, 0x36, 0xbd,
  0xd5, 0xd5, 0x2a, 0x3f, 0xe1, 0x57, 0x95, 0xbe, 0xf1, 0xa5, 0x3f, 0x3e,
  0x77, 0x47, 0xf9, 0x3d, 0xa3, 0x6b, 0xe0, 0x3d, 0x66, 0x45, 0x85, 0xbe,
  0x63, 0x60, 0x0c, 0x3d, 0x4d, 0xf4, 0x5b, 0xbd, 0xc2, 0x25, 0x91, 0xbe,
  0x3c, 0x9f, 0xac, 0xbe, 0xa3, 0x04, 0x59, 0x3d, 0xc8, 0x5e, 0x8e, 0xbe,
  0xc4, 0xa9, 0x2f, 0x3e, 0x55, 0x34, 0x86, 0xbe, 0x2f, 0x62, 0x23, 0xbd,
  0xbe, 0x70, 0x16, 0xbe, 0x10, 0xcb, 0x9d, 0x3e, 0x68, 0x5a, 0xb3, 0xbe,
  0x1d, 0xd0, 0xa3, 0x3d, 0x16, 0xcd, 0x2b, 0x3e, 0x09, 0x8a, 0x9e, 0x3e,
  0x89, 0x71, 0x6a, 0xbe, 0x5e, 0xae, 0xa6, 0xbd, 0xb9, 0x43, 0x21, 0xbe,
  0x03, 0x0c, 0x84, 0x3c, 0x98, 0x9e, 0xc4, 0xbe, 0xf2, 0xb1, 0x54, 0x3c,
  0x74, 0x7f, 0x17, 0x3e, 0xbf, 0x03, 0x87, 0x3e, 0x26, 0x5c, 0x2d, 0x3e,
  0x40, 0x86, 0x26, 0xbf, 0x8c, 0xd0, 0x8f, 0xbc, 0xe5, 0x41, 0x91, 0x3d,
  0x86, 0x06, 0xc5, 0xbe, 0xd3, 0x57, 0x11, 0xbf, 0xc6, 0xce, 0xc9, 0x3e,
  0x78, 0x08, 0xb2, 0x3e, 0x7c, 0x81, 0x4c, 0x3d, 0x95, 0x57, 0x4d, 0x3e,
  0x7c, 0x44, 0x9d, 0xb8, 0xc0, 0x5b, 0x5a, 0x3e, 0x4d, 0x53, 0x49, 0xbe,
  0xaf, 0x15, 0x32, 0x3e, 0xa2, 0xd9, 0xc8, 0xbe, 0xe6, 0xb7, 0xcd, 0x3c,
  0x96, 0xa5, 0x01, 0xbe, 0x24, 0xb9, 0x5c, 0x3e, 0x04, 0x16, 0xda, 0xbe,
  0x7b, 0x62, 0x5b, 0x3d, 0xea, 0x9d, 0xab, 0xbd, 0xc5, 0xfc, 0x60, 0x3e,
  0x2e, 0x3a, 0x0b, 0xbf, 0x42, 0x45, 0x19, 0x3e, 0xe8, 0x23, 0x68, 0xbe,
  0xb6, 0x59, 0xad, 0x3c, 0x31, 0x6e, 0x13, 0xbe, 0x37, 0xff, 0xde, 0xbd,
  0x6d, 0xeb, 0x34, 0x3d, 0x57, 0x17, 0xa9, 0x3d, 0xd2, 0x9d, 0xcb, 0xbd,
  0x56, 0xbb, 0x52, 0xbe, 0xc9, 0xe4, 0x01, 0xbd, 0x23, 0xaf, 0x6a, 0xbd,
  0xbb, 0xe7, 0x2c, 0xbd, 0x0c, 0x45, 0x56, 0xbe, 0x31, 0xd6, 0x9c, 0xbd,
  0x58, 0x1b, 0x3b, 0xbc, 0x5d, 0x82, 0xc0, 0x3e, 0x15, 0xaa, 0x48, 0x3d,
  0xc9, 0xb0, 0x9f, 0xbd, 0x4e, 0x35, 0x8a, 0x3b, 0x3b, 0xf9, 0x51, 0xbd,
  0xa4, 0xc7, 0x8f, 0xbe, 0xea, 0x02, 0xac, 0x3e, 0x9b, 0xec, 0xfb, 0x3c,
  0x95, 0xca, 0xc6, 0x3d, 0x10, 0x7b, 0x74, 0xbc, 0xba, 0xa2, 0x64, 0x3e,
  0x37, 0x05, 0xce, 0x3c, 0x9b, 0x78, 0x3a, 0xbd, 0x7b, 0x4a, 0x54, 0xbe,
  0x2f, 0x42, 0x11, 0x3e, 0x91, 0x7f, 0xe5, 0x3d, 0xa9, 0x02, 0x47, 0xbd,
  0x9a, 0xb0, 0xe9, 0x3d, 0x0e, 0xf3, 0xb3, 0x3d, 0x34, 0xee, 0x7e, 0xbd,
  0xd0, 0x5d, 0x64, 0xbe, 0x39, 0x81, 0x5f, 0xbe, 0x5f, 0x4a, 0xf9, 0xbd,
  0xff, 0xb3, 0x05, 0xbc, 0x93, 0xbf, 0x22, 0xbe, 0x87, 0x72, 0x2b, 0x3d,
  0xc5, 0x9f, 0x8e, 0xbe, 0x06, 0xf1, 0xe2, 0x3e, 0xec, 0x06, 0x6a, 0xbe,
  0xf7, 0x9f, 0x9f, 0xbd, 0xb0, 0x2a, 0x5c, 0x3d, 0x2e, 0x55, 0xee, 0x3c,
  0xb4, 0xaf, 0xa3, 0xbd, 0xa3, 0x5c, 0xe6, 0x3d, 0x43, 0xde, 0xf8, 0xbe,
  0x10, 0xce, 0xb1, 0x3e, 0x96, 0xaf, 0xb0, 0xbd, 0x6a, 0x7e, 0x9d, 0xbe,
  0xf7, 0x67, 0x8c, 0xbc, 0x60, 0xdf, 0x50, 0x3c, 0xc6, 0xb3, 0x8f, 0xbd,
  0x37, 0x04, 0xaa, 0x3e, 0x73, 0x8f, 0x81, 0x3d, 0xab, 0xa2, 0x4f, 0xbf,
  0xa4, 0x81, 0x19, 0x3f, 0x87, 0xcf, 0x02, 0xbf, 0x1b, 0x2f, 0x46, 0xbd,
  0x00, 0xc3, 0xe5, 0x3d, 0xaf, 0xf6, 0x2c, 0xbd, 0x6a, 0x12, 0x04, 0x3f,
  0x90, 0x5f, 0x16, 0x3b, 0x77, 0xc2, 0x23, 0xbf, 0x90, 0xe5, 0x48, 0xbe,
  0x3a, 0x99, 0x8d, 0xbe, 0xe4, 0x04, 0x6a, 0xbd, 0x01, 0x0b, 0x02, 0x3c,
  0x43, 0x96, 0xaa, 0xbd, 0xc7, 0x34, 0x87, 0x3e, 0x09, 0x44, 0xa7, 0xbc,
  0x7c, 0x47, 0xba, 0xbe, 0x2e, 0x4d, 0x88, 0xbe, 0x87, 0xb6, 0x45, 0xbe,
  0x30, 0x62, 0x35, 0xbe, 0x4f, 0x83, 0x91, 0xbe, 0x3b, 0xf0, 0x76, 0x3e,
  0x4d, 0x04, 0x1a, 0x3e, 0x4a, 0x5f, 0xa4, 0x3e, 0xff, 0x63, 0xe9, 0x3e,
  0x16, 0x9c, 0x45, 0xbc, 0xcc, 0x89, 0x36, 0x3e, 0x71, 0x90, 0x37, 0xbe,
  0x05, 0x25, 0x1d, 0xbe, 0x05, 0x53, 0x2f, 0xbd, 0x5b, 0xf4, 0x82, 0xbc,
  0x45, 0xf4, 0x1f, 0x3d, 0x6d, 0xb8, 0x95, 0x3e, 0x34, 0x76, 0x2d, 0xbf,
  0x31, 0x15, 0x16, 0xbe, 0xaf, 0xb1, 0x48, 0xbd, 0xd0, 0xfe, 0x13, 0xbd,
  0x99, 0x3d, 0x80, 0xbe, 0x0b, 0x3c, 0xd5, 0x3d, 0x59, 0x15, 0x14, 0xbe,
  0x0e, 0x96, 0xec, 0xbb, 0x3b, 0xcc, 0x04, 0xbf, 0x4c, 0xb4, 0x4a, 0xbe,
  0x06, 0xe5, 0x19, 0x3e, 0x2e, 0xa1, 0x99, 0x3c, 0x49, 0x15, 0x0a, 0x3e,
  0xed, 0xae, 0x1c, 0x3e, 0xc7, 0x85, 0x5b, 0xbe, 0x37, 0x99, 0x02, 0xbf,
  0x95, 0xe1, 0x92, 0xbe, 0x8f, 0xfa, 0x3b, 0xbe, 0x46, 0x71, 0x90, 0xbd,
  0xde, 0x24, 0x2a, 0xbf, 0xee, 0x53, 0xa3, 0xbd, 0x75, 0x00, 0x20, 0xbf,
  0x13, 0x88, 0xd3, 0xbe, 0x8f, 0x51, 0xa6, 0x3d, 0xf9, 0x93, 0x4d, 0xbe,
  0xff, 0xa5, 0xbb, 0xbe, 0x1a, 0xcb, 0xa0, 0xbc, 0x35, 0x6b, 0x8f, 0x3c,
  0x8c, 0x7a, 0x8b, 0xbd, 0xf9, 0x27, 0x86, 0xbe, 0x75, 0xff, 0x51, 0xbe,
  0x42, 0x70, 0xbb, 0x3b, 0x9c, 0xdf, 0xac, 0xbd, 0x00, 0x66, 0xac, 0xbe,
  0x18, 0xcf, 0xa8, 0x3d, 0x56, 0x95, 0xad, 0x3e, 0xeb, 0xfc, 0x82, 0xbb,
  0x93, 0x66, 0x2b, 0x3e, 0x77, 0x99, 0x8e, 0x3e, 0x8a, 0x72, 0x47, 0x3e,
  0x9c, 0x5c, 0xae, 0x3e, 0x24, 0x81, 0x81, 0xbd, 0x51, 0xa8, 0x8b, 0x3d,
  0x51, 0x21, 0x09, 0x3e, 0x10, 0xd4, 0xa4, 0x3d, 0x49, 0x91, 0x27, 0x3f,
  0x4c, 0xb9, 0xd7, 0x3d, 0x2b, 0x5d, 0x5f, 0x3e, 0x50, 0x1c, 0xfe, 0xbd,
  0x27, 0x1a, 0x43, 0x3e, 0x8d, 0x55, 0x99, 0xbe, 0x01, 0x77, 0x69, 0xbc,
  0x5c, 0xe3, 0x02, 0xbe, 0x4a, 0x16, 0x7e, 0x3e, 0x54, 0x64, 0x5d, 0x3d,
  0x58, 0x70, 0xf4, 0xbc, 0x0e, 0x9e, 0x88, 0xbd, 0x4f, 0xa1, 0x8a, 0x3e,
  0x2d, 0xcb, 0x72, 0xbe, 0xf8, 0x10, 0x4c, 0xbe, 0x28, 0x60, 0x10, 0xbe,
  0x8a, 0x1b, 0x94, 0x3e, 0x65, 0x7e, 0x90, 0xbd, 0x32, 0x0f, 0x44, 0xbe,
  0x31, 0x1b, 0xae, 0xbd, 0xe9, 0x3f, 0xdd, 0xbd, 0x35, 0x65, 0x30, 0xbe,
  0xea, 0x8f, 0xdc, 0x3e, 0xc7, 0x4f, 0x58, 0xbe, 0x52, 0x4e, 0x39, 0x3e,
  0x5a, 0x45, 0x49, 0xbe, 0x28, 0x0e, 0x54, 0x3e, 0x63, 0xd0, 0x8c, 0xbe,
  0x2c, 0x4e, 0xa9, 0x3b, 0x54, 0x5c, 0x58, 0xbe, 0xf4, 0xd2, 0x74, 0x3d,
  0x81, 0xff, 0x94, 0x3d, 0x51, 0x68, 0xb0, 0x3e, 0x73, 0xfc, 0xea, 0x3d,
  0xcc, 0xef, 0x0e, 0xbd, 0x0e, 0x2f, 0xa7, 0x3c, 0xaa, 0x75, 0x61, 0xbc,
  0xbb, 0xaa, 0xaa, 0x3d, 0x5f, 0x19, 0xe4, 0xbd, 0x64, 0x67, 0x02, 0x3e,
  0x2a, 0x3a, 0x3c, 0xbe, 0x51, 0x66, 0xe9, 0xbd, 0xca, 0x35, 0xb1, 0xbd,
  0x94, 0x7a, 0x5e, 0xbd, 0x46, 0x6d, 0xb3, 0xbc, 0x31, 0xbd, 0xa4, 0xbd,
  0x9c, 0xd5, 0x43, 0xbe, 0x99, 0x9a, 0xe6, 0x3c, 0xef, 0xc3, 0xb4, 0xbd,
  0x8d, 0xb6, 0x89, 0x3e, 0x8d, 0x09, 0x01, 0xbe, 0xa8, 0xf6, 0x65, 0x3e,
  0x43, 0x24, 0x96, 0x3c, 0x12, 0x39, 0x8b, 0x3d, 0x5a, 0xb9, 0x8e, 0xbd,
  0x7c, 0x6a, 0xed, 0x3d, 0xc2, 0x7d, 0x1c, 0x3e, 0x23, 0x10, 0x05, 0xbd,
  0xec, 0x79, 0x31, 0x3d, 0x6e, 0xfc, 0x33, 0x3d, 0xea, 0x3b, 0x45, 0x3e,
  0xb7, 0x6d, 0x9b, 0xbd, 0x96, 0x9f, 0x37, 0xbe, 0x1a, 0x77, 0x42, 0x3e,
  0xe9, 0xf1, 0x1b, 0xbe, 0x9a, 0xde, 0xff, 0xff, 0x10, 0x00, 0x00, 0x00,
  0x0a, 0x00, 0x00, 0x00, 0x1c, 0x00, 0x00, 0x00, 0x38, 0x00, 0x00, 0x00,
  0x04, 0x00, 0x00, 0x00, 0x10, 0x00, 0x00, 0x00, 0x04, 0x00, 0x00, 0x00,
  0x01, 0x00, 0x00, 0x00, 0x08, 0x00, 0x00, 0x00, 0x1a, 0x00, 0x00, 0x00,
  0x73, 0x65, 0x71, 0x75, 0x65, 0x6e, 0x74, 0x69, 0x61, 0x6c, 0x2f, 0x63,
  0x6f, 0x6e, 0x76, 0x32, 0x64, 0x5f, 0x31, 0x2f, 0x43, 0x6f, 0x6e, 0x76,
  0x32, 0x44, 0x00, 0x00, 0x24, 0xde, 0xff, 0xff, 0x06, 0xdf, 0xff, 0xff,
  0x04, 0x00, 0x00, 0x00, 0x80, 0x01, 0x00, 0x00, 0xe7, 0xef, 0x56, 0xbd,
  0x43, 0xd2, 0x9b, 0x3c, 0xb3, 0x2d, 0x33, 0xbe, 0xc5, 0x9c, 0x34, 0x3d,
  0x4e, 0x26, 0x79, 0x3d, 0xc3, 0x0e, 0x41, 0xbd, 0xb4, 0xbe, 0xfb, 0x3d,
  0x9b, 0x61, 0x25, 0x3e, 0xe0, 0x2c, 0x96, 0x3e, 0xd5, 0xad, 0xb4, 0x3c,
  0x7b, 0x08, 0x59, 0x3b, 0xc4, 0xd7, 0x7f, 0x3d, 0xe7, 0x44, 0x0a, 0x3e,
  0x74, 0xb7, 0x18, 0x3d, 0xff, 0x3a, 0xe4, 0x3c, 0xb8, 0x3f, 0xe8, 0x3e,
  0xb0, 0x12, 0xb9, 0x3e, 0xf3, 0x6c, 0x9a, 0x3e, 0xc3, 0x89, 0x24, 0xbe,
  0x75, 0x64, 0x39, 0xbd, 0x6e, 0xcd, 0xe0, 0xbd, 0x08, 0x0d, 0x8c, 0xbe,
  0xc6, 0x3e, 0xb2, 0xbe, 0x2c, 0xbc, 0x7e, 0xbe, 0x14, 0xe8, 0x88, 0xbd,
  0xeb, 0xe8, 0x4f, 0x3e, 0x82, 0x9c, 0xc0, 0xbe, 0xb8, 0x24, 0xb3, 0x3d,
  0xa6, 0x93, 0xb8, 0xbd, 0xbb, 0x65, 0x89, 0x3d, 0xc5, 0x0b, 0x83, 0x3e,
  0x0d, 0x4b, 0x73, 0xbd, 0xdf, 0x0b, 0x7c, 0x3e, 0xa8, 0xcd, 0x00, 0x3d,
  0x03, 0xcf, 0x61, 0xbd, 0x1e, 0xec, 0x32, 0x3d, 0x75, 0xe5, 0x1a, 0xbe,
  0xc6, 0xf7, 0xe6, 0x3b, 0xd3, 0x41, 0x7b, 0xbe, 0xb1, 0x53, 0x52, 0x3f,
  0x03, 0xa8, 0xa0, 0xbd, 0x1a, 0xa7, 0x45, 0x3e, 0x33, 0xb4, 0xc3, 0xbe,
  0x8c, 0xd6, 0x5c, 0x3e, 0x6b, 0x33, 0xa4, 0xbd, 0x8e, 0xa5, 0xa3, 0x3d,
  0x54, 0xb5, 0x19, 0x3d, 0xb1, 0xa2, 0x35, 0x3d, 0xac, 0x17, 0x8c, 0x3d,
  0x2d, 0xe8, 0x20, 0xbd, 0x29, 0x7f, 0x38, 0x3e, 0xc4, 0xa2, 0xff, 0xbd,
  0xa5, 0xeb, 0xcd, 0xbc, 0xa7, 0xb9, 0xd5, 0x3d, 0xe0, 0x68, 0xb3, 0xbd,
  0x7c, 0x02, 0x7d, 0x3d, 0xc8, 0x0f, 0x9c, 0x3c, 0x82, 0x7f, 0x16, 0xbe,
  0x9c, 0xa8, 0x37, 0x3e, 0x51, 0xf8, 0x89, 0xbb, 0x0c, 0xc4, 0x6d, 0xbe,
  0x1a, 0x88, 0xc5, 0x3e, 0xa9, 0xc0, 0x75, 0x3e, 0xd8, 0x02, 0xc7, 0xbd,
  0xcc, 0xa4, 0x1e, 0x3e, 0x34, 0xcd, 0x36, 0xbd, 0x62, 0x09, 0x00, 0x3e,
  0x9c, 0x48, 0x73, 0xbd, 0xbc, 0x5d, 0x8d, 0x3c, 0x3f, 0xa0, 0x64, 0x3e,
  0xe4, 0x28, 0xdd, 0xbe, 0x0f, 0x6d, 0x70, 0xbe, 0x26, 0x6d, 0xea, 0xbd,
  0x40, 0x5a, 0xd6, 0x3b, 0x3c, 0x87, 0x2f, 0xbe, 0x83, 0x19, 0xe9, 0xbe,
  0x7b, 0x94, 0x8e, 0xbe, 0x50, 0x84, 0xd5, 0x3d, 0xce, 0xbe, 0x52, 0x3e,
  0x04, 0x9f, 0x78, 0x3e, 0xbe, 0x0d, 0x45, 0xbd, 0x33, 0x0e, 0x2a, 0x3e,
  0x90, 0x79, 0x6e, 0x3d, 0x38, 0x7c, 0xcd, 0xbd, 0xb4, 0x29, 0xd1, 0x3d,
  0x34, 0xed, 0xb8, 0xbe, 0x35, 0xce, 0xc2, 0xbe, 0x75, 0x65, 0x52, 0x3e,
  0xed, 0x0c, 0x8e, 0xbd, 0x91, 0xe6, 0xbb, 0x3d, 0xd2, 0xe1, 0x1f, 0xbd,
  0x55, 0xe3, 0xc4, 0x3e, 0x37, 0x3f, 0x56, 0x3e, 0xe3, 0xfb, 0x97, 0xbe,
  0x2b, 0xc6, 0x96, 0x3c, 0x88, 0x17, 0x74, 0x3d, 0x72, 0xe0, 0xff, 0xff,
  0x10, 0x00, 0x00, 0x00, 0x09, 0x00, 0x00, 0x00, 0x1c, 0x00, 0x00, 0x00,
  0x38, 0x00, 0x00, 0x00, 0x04, 0x00, 0x00, 0x00, 0x08, 0x00, 0x00, 0x00,
  0x04, 0x00, 0x00, 0x00, 0x03, 0x00, 0x00, 0x00, 0x01, 0x00, 0x00, 0x00,
  0x18, 0x00, 0x00, 0x00, 0x73, 0x65, 0x71, 0x75, 0x65, 0x6e, 0x74, 0x69,
  0x61, 0x6c, 0x2f, 0x63, 0x6f, 0x6e, 0x76, 0x32, 0x64, 0x2f, 0x43, 0x6f,
  0x6e, 0x76, 0x32, 0x44, 0x00, 0x00, 0x00, 0x00, 0xfc, 0xdf, 0xff, 0xff,
  0xde, 0xe0, 0xff, 0xff, 0x04, 0x00, 0x00, 0x00, 0xc0, 0x00, 0x00, 0x00,
  0x4c, 0x64, 0x94, 0x3d, 0x67, 0xd2, 0x1c, 0x3e, 0x01, 0x3c, 0x5f, 0x3e,
  0x62, 0x6b, 0x99, 0x3e, 0x1e, 0x91, 0x02, 0x3d, 0x65, 0x57, 0x0d, 0xbf,
  0x2d, 0x3a, 0x85, 0x3e, 0x1d, 0x0e, 0x7c, 0xbe, 0xe0, 0x93, 0x2a, 0xbe,
  0xb1, 0x6d, 0xdc, 0x3e, 0xec, 0x9e, 0x79, 0x3b, 0xc1, 0xa6, 0x83, 0x3e,
  0x75, 0x00, 0x86, 0xbd, 0xdf, 0x15, 0x9d, 0xbe, 0x4f, 0xef, 0x52, 0x3e,
  0x95, 0x52, 0x69, 0x3e, 0xf9, 0x11, 0x5b, 0x3c, 0x88, 0x10, 0x7e, 0xbe,
  0xea, 0x65, 0x57, 0x3e, 0xcc, 0xb5, 0xba, 0x3e, 0x28, 0xad, 0x8c, 0xbe,
  0xee, 0x8c, 0x03, 0xbf, 0xc1, 0x4c, 0x54, 0x3e, 0x7c, 0x20, 0x33, 0xbe,
  0xcc, 0x06, 0x34, 0x3d, 0xd5, 0x46, 0xdb, 0xbe, 0x80, 0x2d, 0xa9, 0x3d,
  0x96, 0x0e, 0x87, 0x3e, 0x97, 0x92, 0x48, 0xbd, 0x6e, 0x0d, 0x88, 0xbe,
  0x65, 0x90, 0x75, 0x3e, 0xd9, 0xba, 0x47, 0x3e, 0xa0, 0x43, 0x18, 0x3b,
  0xb0, 0xf5, 0x88, 0xbe, 0x53, 0x49, 0x22, 0x3e, 0x84, 0x7c, 0xa8, 0x3e,
  0xe1, 0xc8, 0xbd, 0x3d, 0x49, 0x6f, 0xef, 0xbe, 0xbf, 0xf6, 0x3d, 0x3e,
  0xca, 0x1c, 0x14, 0xbe, 0xb8, 0xb5, 0x7e, 0x3d, 0xd5, 0xb1, 0xc0, 0xbe,
  0x6a, 0x7b, 0xfb, 0x3d, 0x00, 0xa5, 0x9f, 0x3e, 0xee, 0x8d, 0x9b, 0xbd,
  0x1c, 0xae, 0xbf, 0xbe, 0x09, 0x9c, 0x5a, 0x3e, 0x2a, 0xf0, 0x7c, 0xbe,
  0x8a, 0xe1, 0xff, 0xff, 0x10, 0x00, 0x00, 0x00, 0x08, 0x00, 0x00, 0x00,
  0x14, 0x00, 0x00, 0x00, 0x30, 0x00, 0x00, 0x00, 0x02, 0x00, 0x00, 0x00,
  0x03, 0x00, 0x00, 0x00, 0x10, 0x00, 0x00, 0x00, 0x19, 0x00, 0x00, 0x00,
  0x73, 0x65, 0x71, 0x75, 0x65, 0x6e, 0x74, 0x69, 0x61, 0x6c, 0x2f, 0x64,
  0x65, 0x6e, 0x73, 0x65, 0x5f, 0x31, 0x2f, 0x4d, 0x61, 0x74, 0x4d, 0x75,
  0x6c, 0x00, 0x00, 0x00, 0x0c, 0xe1, 0xff, 0xff, 0xee, 0xe1, 0xff, 0xff,
  0x04, 0x00, 0x00, 0x00, 0x00, 0x1c, 0x00, 0x00, 0x71, 0x01, 0xc7, 0x3d,
  0xee, 0x9e, 0xc0, 0xbe, 0xe6, 0x42, 0xdf, 0x3c, 0xe6, 0x13, 0xab, 0x3d,
  0xed, 0xd0, 0x05, 0xbe, 0xb1, 0xf5, 0x81, 0xbe, 0xae, 0x09, 0x07, 0xbd,
  0x14, 0xf3, 0x66, 0x3d, 0xad, 0x44, 0xfe, 0xbe, 0xb0, 0x0c, 0xad, 0xbe,
  0x1d, 0x00, 0x74, 0x3e, 0xaa, 0xbe, 0x6f, 0x3e, 0x5b, 0x3b, 0xf7, 0xbe,
  0x2a, 0x5f, 0x86, 0x3d, 0x28, 0xcc, 0xdb, 0xbe, 0xa2, 0x74, 0x4f, 0x3d,
  0x98, 0x2d, 0x8b, 0x3d, 0x9f, 0x3f, 0xeb, 0x3b, 0x6c, 0x59, 0xa7, 0xbc,
  0x20, 0x8d, 0xb1, 0x3e, 0xc9, 0xe0, 0xfb, 0xbd, 0x93, 0xfd, 0xbb, 0x3e,
  0x79, 0xe3, 0x16, 0xbe, 0x16, 0x26, 0x9e, 0xbc, 0x36, 0xf5, 0xa2, 0xbe,
  0xe9, 0xea, 0xec, 0xbd, 0x07, 0x1e, 0x2d, 0x3d, 0x2f, 0x2d, 0x4c, 0xbe,
  0x87, 0xa2, 0xc3, 0x3c, 0x65, 0x1d, 0xcb, 0x3c, 0x69, 0x03, 0x81, 0xbe,
  0x17, 0xbc, 0xbb, 0xbd, 0x54, 0x3d, 0xf6, 0x3e, 0x88, 0x5a, 0x21, 0x3e,
  0x32, 0x0c, 0x35, 0xbe, 0xc4, 0xb7, 0x52, 0xbd, 0x86, 0x71, 0x03, 0xbd,
  0x49, 0xce, 0xb8, 0x3e, 0xde, 0xd3, 0x2d, 0x3e, 0x73, 0xf2, 0x91, 0x3e,
  0x19, 0xbc, 0x95, 0xbe, 0x5b, 0x22, 0x85, 0xbd, 0x3d, 0xc1, 0xec, 0xbc,
  0xd1, 0x7e, 0xe3, 0x3e, 0x7d, 0x58, 0x85, 0x3e, 0x78, 0xd2, 0x28, 0x3e,
  0x28, 0xce, 0xfb, 0xbd, 0xef, 0x12, 0xb1, 0xbd, 0x22, 0x6b, 0x0d, 0x3c,
  0xd0, 0xa2, 0x0b, 0xbe, 0xb9, 0x23, 0x9b, 0x3e, 0x01, 0xe2, 0x11, 0x3f,
  0x32, 0xbe, 0xdf, 0x3d, 0xd7, 0x10, 0x03, 0x3e, 0xab, 0x26, 0xbc, 0xbe,
  0x4f, 0x91, 0x6b, 0x3e, 0x3e, 0xd0, 0xda, 0xbd, 0x79, 0xff, 0x24, 0x3d,
  0xb9, 0x29, 0xc1, 0xbb, 0x66, 0x40, 0x99, 0x3e, 0xfd, 0x90, 0x67, 0x3e,
  0xf0, 0x07, 0x34, 0x3e, 0x0f, 0x9a, 0x76, 0xbe, 0x9f, 0x7d, 0xa2, 0xbd,
  0x6b, 0x74, 0x93, 0x3d, 0x39, 0x53, 0x79, 0xbe, 0x62, 0x28, 0x97, 0x3e,
  0x96, 0x32, 0x3e, 0xbd, 0x6f, 0x84, 0xd6, 0xbc, 0xa4, 0xcc, 0xbe, 0xbd,
  0xf7, 0x68, 0x81, 0xbe, 0x14, 0xb2, 0x4f, 0x3e, 0x7c, 0x3e, 0xd2, 0xbe,
  0xd2, 0x98, 0xae, 0xbe, 0x09, 0x35, 0xc8, 0x3d, 0xb5, 0x5a, 0xe4, 0x3e,
  0x3a, 0x8e, 0x6b, 0xbe, 0x37, 0x18, 0x20, 0x3e, 0x60, 0x62, 0x08, 0xbf,
  0xf1, 0x64, 0x85, 0x3d, 0x3e, 0xaa, 0x3c, 0xbd, 0xe9, 0x15, 0xca, 0xbe,
  0x96, 0x00, 0xc9, 0x3d, 0x16, 0x41, 0x74, 0x3d, 0x92, 0x0c, 0x93, 0x3c,
  0x1c, 0x24, 0x45, 0x3e, 0x61, 0xaa, 0x50, 0xbe, 0xfb, 0x78, 0x12, 0xbc,
  0x88, 0xaf, 0xcf, 0xbe, 0x0a, 0x60, 0x97, 0xbe, 0x58, 0x2b, 0x2b, 0xbe,
  0x56, 0x81, 0x8b, 0x3e, 0xa3, 0xb3, 0x8c, 0xbe, 0x12, 0xdb, 0xb4, 0x3e,
  0xc2, 0xc2, 0x90, 0xbe, 0x51, 0xd2, 0x62, 0xbd, 0xb3, 0xe9, 0x3e, 0x3e,
  0xd6, 0x0d, 0x4d, 0xbe, 0x33, 0x8e, 0xc0, 0xbb, 0xaf, 0x04, 0xae, 0x3a,
  0xb9, 0xae, 0xe3, 0x3c, 0x75, 0xc2, 0x59, 0x3e, 0x55, 0x26, 0x27, 0x3d,
  0x4a, 0x25, 0xdf, 0xbc, 0x4b, 0x29, 0xa5, 0xbe, 0x3e, 0x7e, 0x0c, 0xbe,
  0x74, 0x2c, 0xc3, 0xbd, 0xd9, 0x6d, 0x3d, 0xbc, 0xa2, 0xb3, 0x2f, 0xbe,
  0x44, 0x66, 0xc0, 0x3c, 0xae, 0x7b, 0x80, 0xbe, 0x08, 0x20, 0x56, 0xbe,
  0x7a, 0x13, 0xda, 0xbd, 0xdb, 0xc4, 0x8a, 0xbe, 0x31, 0xf7, 0x12, 0xbe,
  0x64, 0xb9, 0x79, 0xbe, 0x70, 0x8e, 0xb4, 0x3d, 0x06, 0x65, 0x02, 0xbd,
  0x30, 0x80, 0x9c, 0x3d, 0x3f, 0xf9, 0x10, 0xbe, 0x09, 0x0b, 0x99, 0xbd,
  0xb3, 0x9b, 0x90, 0xbe, 0x79, 0x10, 0x8b, 0xbd, 0xa7, 0xc6, 0x36, 0xbc,
  0x0d, 0xb8, 0x42, 0x3d, 0x5e, 0x59, 0x4f, 0xbd, 0xf5, 0x88, 0x1d, 0xbd,
  0x63, 0x8f, 0x94, 0xbd, 0x7f, 0xc7, 0x46, 0xbe, 0x55, 0xe5, 0x8c, 0xbd,
  0x42, 0xc5, 0xf3, 0x3d, 0x15, 0x8d, 0x5b, 0xbe, 0x19, 0x0c, 0x26, 0x3c,
  0x1e, 0x06, 0x6b, 0xbe, 0x80, 0x0f, 0x1f, 0xbe, 0xe3, 0x68, 0x95, 0x3d,
  0x5d, 0xd3, 0xe9, 0x3d, 0x00, 0x1d, 0xce, 0xbc, 0xf3, 0x57, 0x96, 0xbe,
  0x83, 0x2a, 0x91, 0x3a, 0x02, 0xcb, 0xa4, 0x3d, 0x67, 0x92, 0x3d, 0xbc,
  0xec, 0x37, 0x10, 0xbe, 0xc7, 0xca, 0xd3, 0xbd, 0xa5, 0xab, 0x6d, 0xbe,
  0x97, 0x61, 0x79, 0xbe, 0xf5, 0x86, 0xa7, 0x3d, 0xb0, 0x7d, 0x98, 0x3d,
  0x31, 0xd9, 0x2b, 0xbc, 0x29, 0x89, 0x68, 0xbe, 0x23, 0xa3, 0x68, 0xbd,
  0xed, 0x65, 0x5d, 0xbe, 0x36, 0xc6, 0xb5, 0x3d, 0x76, 0x5b, 0x81, 0xbd,
  0x05, 0x37, 0x0e, 0xbe, 0x60, 0x3f, 0xf6, 0xbd, 0xef, 0xba, 0x43, 0xbd,
  0x40, 0x8f, 0x6e, 0xbe, 0x0f, 0x57, 0xa2, 0xbc, 0x4c, 0x9d, 0xdf, 0xbd,
  0x2b, 0x23, 0xa0, 0xbd, 0xa5, 0xd6, 0x00, 0x3d, 0x30, 0xfc, 0x04, 0xbe,
  0x66, 0xd4, 0xdf, 0xbd, 0x34, 0x0b, 0x23, 0xbe, 0xe5, 0x6c, 0x8c, 0xbe,
  0x7f, 0x44, 0x42, 0xbe, 0x5b, 0xc5, 0x64, 0xbe, 0x65, 0xa9, 0x60, 0xbe,
  0x3b, 0xf2, 0x62, 0xbe, 0x2b, 0x0e, 0x06, 0x3d, 0xbc, 0xf3, 0x66, 0xbe,
  0x23, 0xb8, 0x33, 0xbe, 0x2b, 0xe6, 0x39, 0x3e, 0x69, 0x55, 0x88, 0x3a,
  0x36, 0x7c, 0xf4, 0xbd, 0x3f, 0x89, 0x4b, 0xbe, 0x3e, 0xc3, 0x99, 0xbe,
  0x63, 0x8e, 0xb3, 0xbd, 0x74, 0x91, 0xee, 0xbc, 0xd6, 0x05, 0xbd, 0xbd,
  0xe1, 0xb3, 0x0c, 0xbd, 0x3a, 0x60, 0x37, 0x3e, 0xcd, 0xef, 0x94, 0xbe,
  0x5f, 0x1a, 0x40, 0x3d, 0xaa, 0xc6, 0xf5, 0xbd, 0x73, 0xad, 0x96, 0xbb,
  0xad, 0x39, 0xa1, 0xbd, 0xe5, 0x10, 0xe6, 0x3d, 0x92, 0xfa, 0x81, 0xbe,
  0xbb, 0x9f, 0xf0, 0xbc, 0x9e, 0xd7, 0xd4, 0xbd, 0xb1, 0x1f, 0x07, 0xbe,
  0xe5, 0x53, 0x97, 0x3b, 0x24, 0x56, 0x2a, 0xbd, 0x8c, 0xa6, 0x80, 0xbd,
  0xc8, 0x53, 0x81, 0xbd, 0x50, 0x7a, 0x96, 0xbd, 0x79, 0xb2, 0xf2, 0x3d,
  0xdb, 0x04, 0x8d, 0x3c, 0xb2, 0x3b, 0x6b, 0xbe, 0xae, 0x3b, 0xc2, 0xbc,
  0x8a, 0x64, 0xba, 0x3d, 0x54, 0x41, 0x9c, 0x3d, 0x08, 0x26, 0xb3, 0x3c,
  0x3a, 0x4c, 0x1c, 0xbd, 0xe8, 0xa0, 0xa0, 0x3d, 0x36, 0xd1, 0x80, 0xbd,
  0x43, 0x30, 0x9a, 0x3c, 0x45, 0x90, 0x18, 0xbe, 0xa6, 0x88, 0x6b, 0xbe,
  0xc1, 0x90, 0x8e, 0xbd, 0x02, 0x08, 0x29, 0xbe, 0xa5, 0x94, 0x14, 0xbc,
  0x4e, 0x02, 0x95, 0xbe, 0x51, 0xbb, 0x2b, 0xbe, 0xa2, 0xac, 0x1b, 0xbe,
  0x58, 0x76, 0x08, 0xbe, 0x2f, 0x60, 0x3d, 0xbe, 0xc4, 0x48, 0x8f, 0x3d,
  0x68, 0x58, 0xac, 0x3b, 0x1d, 0x10, 0x9e, 0xbd, 0xd6, 0x13, 0x92, 0xba,
  0xc8, 0xad, 0x4a, 0xbe, 0x10, 0x5c, 0x1b, 0x3e, 0x46, 0x0a, 0x1a, 0xbe,
  0x43, 0xc1, 0x51, 0xbd, 0xc6, 0x95, 0x08, 0x3e, 0xe0, 0xd3, 0x16, 0xbd,
  0x5e, 0x5a, 0xfd, 0xbd, 0xad, 0x65, 0x19, 0xbe, 0x8d, 0x1e, 0x41, 0xbe,
  0x0f, 0x2d, 0x66, 0xbe, 0xd3, 0xa9, 0xec, 0xbd, 0x3a, 0x7c, 0x98, 0x3d,
  0x02, 0x61, 0x89, 0x3e, 0x68, 0xa0, 0xe9, 0xbd, 0x61, 0x07, 0x06, 0xbe,
  0x72, 0xf9, 0x82, 0xbe, 0x41, 0xa5, 0x5e, 0xbe, 0x33, 0xcf, 0xaa, 0x3e,
  0x22, 0xf7, 0x6c, 0x3d, 0x76, 0xfa, 0xad, 0x3c, 0x1d, 0x65, 0xa8, 0xbd,
  0xa7, 0x51, 0xdd, 0xbd, 0x94, 0x9b, 0x51, 0xbe, 0xe1, 0x2a, 0xa0, 0xbd,
  0x41, 0x1c, 0xdc, 0x3b, 0x82, 0x82, 0x0c, 0x3e, 0x5a, 0x44, 0xc0, 0x3c,
  0x7b, 0x00, 0x1b, 0x3d, 0x68, 0xaf, 0x56, 0xbe, 0xab, 0x41, 0x1d, 0x3e,
  0xa2, 0x44, 0x22, 0xbe, 0xa8, 0x11, 0xeb, 0x3c, 0x75, 0x55, 0x9c, 0xbd,
  0x55, 0xfe, 0x0c, 0x3e, 0xc1, 0x3d, 0x01, 0xbe, 0x92, 0x04, 0x82, 0x3d,
  0x46, 0xc3, 0x49, 0xbe, 0x73, 0x5b, 0x80, 0xbd, 0x68, 0x43, 0x20, 0x3e,
  0x99, 0xdf, 0xfd, 0xbd, 0x54, 0x37, 0x41, 0x3d, 0xfd, 0x54, 0x17, 0xbe,
  0xcc, 0x27, 0xa3, 0x3d, 0xb3, 0x9b, 0x39, 0xbc, 0xcf, 0x04, 0x03, 0x3e,
  0xe9, 0xd9, 0x96, 0x3e, 0x94, 0x33, 0x4d, 0x3e, 0x1b, 0x3f, 0xf2, 0xbd,
  0xed, 0x4b, 0xe4, 0xbd, 0x71, 0x39, 0xb8, 0xbd, 0xd7, 0xc7, 0x2f, 0xbe,
  0x09, 0x7b, 0x5a, 0xbe, 0x66, 0x7b, 0x3b, 0xbe, 0x79, 0xb1, 0x1d, 0xbd,
  0xab, 0x43, 0x1d, 0x3e, 0x47, 0x3a, 0xdb, 0x3d, 0x2f, 0xc6, 0x76, 0xbd,
  0xa2, 0x63, 0x56, 0xbe, 0x29, 0x19, 0x18, 0x3e, 0x4d, 0x05, 0x6b, 0x3d,
  0x24, 0xa1, 0xaf, 0xbd, 0x31, 0xed, 0x70, 0x3e, 0xda, 0x02, 0xe9, 0xbc,
  0xa6, 0xb6, 0xb7, 0x3a, 0xbd, 0x3e, 0x1f, 0xbe, 0x26, 0xd5, 0x73, 0xbd,
  0xe5, 0xad, 0x9a, 0xbc, 0x3d, 0xd0, 0x9e, 0x3d, 0x26, 0x06, 0xad, 0x3e,
  0x94, 0x17, 0xb1, 0x3e, 0xe5, 0xee, 0x6c, 0xbd, 0x6a, 0x48, 0xb5, 0xbd,
  0xd3, 0x73, 0x01, 0xbe, 0x02, 0x9d, 0x61, 0xbe, 0xac, 0xd2, 0x6c, 0xbe,
  0x8b, 0x78, 0x57, 0x3c, 0xaf, 0xf9, 0x05, 0xbd, 0x72, 0x78, 0x25, 0x3e,
  0x16, 0x89, 0x25, 0x3e, 0xc8, 0xe1, 0xaa, 0xbd, 0x28, 0xe5, 0x27, 0xbe,
  0xe3, 0xcf, 0x96, 0xbd, 0xee, 0xb5, 0xdd, 0xbd, 0x21, 0x70, 0xd0, 0x3d,
  0x7a, 0x0f, 0x21, 0xbd, 0xaf, 0x4e, 0xfe, 0xbd, 0x58, 0xd1, 0xe9, 0xbb,
  0xaf, 0x18, 0xd0, 0xbd, 0xe7, 0x44, 0x4c, 0xbe, 0xf3, 0x8d, 0x89, 0x3d,
  0xe5, 0x60, 0xcf, 0xbb, 0xfe, 0x4a, 0x4a, 0xbe, 0x10, 0xcf, 0xcd, 0x3d,
  0x10, 0xae, 0x70, 0xbe, 0x44, 0xac, 0x95, 0x3e, 0x16, 0xf6, 0xac, 0xbe,
  0x14, 0xa9, 0x31, 0xbe, 0x4c, 0x70, 0x4a, 0x3e, 0x78, 0x23, 0x7a, 0xbc,
  0x04, 0xef, 0x79, 0xbd, 0x03, 0x8c, 0x33, 0x3d, 0xe2, 0xd3, 0x9b, 0x3a,
  0x6a, 0x62, 0x68, 0x3e, 0xa5, 0x5c, 0x3d, 0xbe, 0x0a, 0xa8, 0x03, 0xbe,
  0xc1, 0xac, 0xb5, 0x3a, 0xcf, 0x3c, 0x71, 0xbe, 0x6d, 0x0f, 0x35, 0xbe,
  0xcd, 0x5d, 0x5d, 0xbe, 0xb9, 0x71, 0xfa, 0xbd, 0xc7, 0x9a, 0x96, 0xbd,
  0x89, 0x6d, 0x75, 0xbe, 0x83, 0x4c, 0xa5, 0xbe, 0x8e, 0xaf, 0xaa, 0xbd,
  0xfd, 0x30, 0x81, 0xbd, 0xed, 0x6b, 0xa7, 0xbe, 0x3d, 0x4c, 0xc1, 0xbe,
  0x37, 0x53, 0xb6, 0xbd, 0xbc, 0x51, 0xfa, 0xbd, 0xd6, 0x30, 0x6d, 0x3b,
  0x7c, 0x5b, 0x76, 0xbe, 0x52, 0xfc, 0xb3, 0x3d, 0xfc, 0xcf, 0x0c, 0xbd,
  0x18, 0xae, 0xbf, 0xbe, 0xc8, 0xb7, 0x92, 0xbd, 0x4e, 0x3b, 0x5f, 0xbe,
  0xc5, 0xfa, 0x6d, 0xbe, 0xb7, 0x03, 0x8d, 0xbd, 0xfd, 0x66, 0x29, 0xbe,
  0xf0, 0xb5, 0x29, 0xbe, 0xbb, 0x75, 0x57, 0xbe, 0xa3, 0x06, 0x2e, 0x3d,
  0xd0, 0xe7, 0xba, 0x3d, 0x55, 0xf2, 0xa1, 0xbe, 0xa5, 0x3b, 0xc0, 0xbe,
  0x01, 0x5c, 0xbe, 0xbd, 0xe7, 0x79, 0xa6, 0xbe, 0x1e, 0xf2, 0x07, 0x3d,
  0x5d, 0x0c, 0x63, 0xbe, 0x40, 0x14, 0x4e, 0xbf, 0x14, 0xde, 0x30, 0xbe,
  0x3c, 0xc4, 0x67, 0xbe, 0x3b, 0x44, 0x9e, 0xbe, 0x96, 0x34, 0x42, 0x3b,
  0x41, 0xb5, 0xd3, 0xbd, 0x21, 0x39, 0xa6, 0xbe, 0x32, 0x62, 0x05, 0x3d,
  0x05, 0x65, 0x4e, 0xbe, 0xff, 0xf3, 0xc3, 0x3d, 0xc2, 0x2f, 0x27, 0xbe,
  0xd1, 0x75, 0xf5, 0xbd, 0x17, 0x02, 0x3e, 0xbd, 0xfd, 0xa6, 0x97, 0xbe,
  0xf7, 0x2c, 0xdf, 0x3d, 0xc8, 0x62, 0x5e, 0x3c, 0x86, 0xa1, 0x33, 0xbf,
  0xc7, 0x5b, 0xed, 0x3b, 0x2d, 0x13, 0x96, 0xbd, 0xc0, 0x81, 0x9b, 0xbe,
  0x78, 0x6f, 0x86, 0xbd, 0xf5, 0xd9, 0x0b, 0xbe, 0x0e, 0x76, 0xd2, 0xbe,
  0x2e, 0x86, 0xc6, 0xbe, 0x5e, 0x67, 0x58, 0x3d, 0xee, 0xe4, 0x11, 0x3d,
  0x1b, 0xd2, 0x38, 0xbe, 0x62, 0x03, 0xba, 0xbd, 0x12, 0xb0, 0xdf, 0xbd,
  0x59, 0xc2, 0xac, 0xbe, 0xf7, 0x2d, 0xea, 0xbd, 0x5a, 0x7b, 0xc3, 0xbe,
  0xf7, 0x26, 0x16, 0xbf, 0x4d, 0x2f, 0x69, 0x3d, 0x51, 0xd6, 0x6b, 0xbe,
  0x67, 0xd0, 0xaa, 0xbe, 0x82, 0xd8, 0x59, 0xbe, 0x70, 0x36, 0x40, 0xbe,
  0x49, 0xa5, 0x32, 0x3e, 0xfe, 0x77, 0x3c, 0x3e, 0xf8, 0xdb, 0x85, 0xba,
  0x6c, 0x6a, 0x83, 0x3e, 0x04, 0xbe, 0x88, 0xbd, 0x52, 0x48, 0x14, 0xbe,
  0x58, 0xa1, 0x81, 0xbe, 0x45, 0x68, 0xe9, 0xbe, 0xfa, 0xde, 0xf1, 0xbd,
  0xb2, 0x68, 0x67, 0xbe, 0x1d, 0x71, 0x11, 0xbf, 0xdc, 0x80, 0xb6, 0x3d,
  0x3e, 0xd8, 0x65, 0xbd, 0xde, 0x44, 0xf7, 0x3c, 0xd4, 0xc2, 0xc1, 0xbd,
  0xd8, 0x05, 0xd9, 0xbd, 0xb4, 0xad, 0xe7, 0x3d, 0x80, 0x37, 0x55, 0x3d,
  0x06, 0xe8, 0x1d, 0xbe, 0x40, 0x95, 0x08, 0x3e, 0x04, 0x7b, 0x03, 0x3e,
  0xbb, 0x81, 0x5f, 0x3d, 0x14, 0x1a, 0xb5, 0x3d, 0x49, 0x4c, 0xed, 0x3c,
  0xb9, 0xf7, 0xb1, 0xbc, 0x83, 0x1e, 0x95, 0x3e, 0x01, 0x66, 0xe7, 0xbe,
  0x1d, 0x07, 0x66, 0xbd, 0x7a, 0x97, 0x9c, 0x3e, 0x7e, 0x12, 0xa5, 0xbd,
  0x70, 0x65, 0x78, 0x3e, 0xea, 0xde, 0x25, 0xbd, 0x03, 0x61, 0x65, 0x3e,
  0x6d, 0x2d, 0xc8, 0xbd, 0xc2, 0x2f, 0x88, 0xbd, 0x7b, 0xab, 0xf7, 0x3d,
  0x1f, 0xbb, 0xea, 0xbd, 0x85, 0xad, 0x35, 0x3e, 0xbd, 0xd8, 0x60, 0xbd,
  0xf5, 0x03, 0x90, 0x3b, 0x3f, 0x41, 0xec, 0x3c, 0x95, 0x0c, 0xd4, 0x3a,
  0x0d, 0x12, 0x85, 0x3d, 0xb6, 0x0a, 0x51, 0x3d, 0x9b, 0xed, 0x17, 0x3e,
  0x13, 0x0c, 0x07, 0x3e, 0x6e, 0x67, 0xee, 0x3d, 0x62, 0x7b, 0x9f, 0x3e,
  0x36, 0x1c, 0xab, 0x3d, 0x01, 0x0e, 0xb1, 0xbd, 0xa6, 0x72, 0x52, 0xbd,
  0x95, 0xed, 0xd7, 0xbd, 0x3d, 0xe6, 0x31, 0xbd, 0xb9, 0x8d, 0x57, 0x3d,
  0x1c, 0xb2, 0x49, 0xbe, 0xba, 0xb8, 0xb2, 0xbd, 0xdb, 0xf4, 0x96, 0xbd,
  0x01, 0x1e, 0xc7, 0x3c, 0x9c, 0xa4, 0x7e, 0xbc, 0xe6, 0x44, 0x8d, 0xbe,
  0x04, 0x99, 0xd6, 0x3d, 0x61, 0x7f, 0xfe, 0xbc, 0x86, 0x07, 0x46, 0xbe,
  0xb9, 0x28, 0x9f, 0x3d, 0x35, 0x2d, 0x61, 0xbe, 0x63, 0xb1, 0xad, 0xbd,
  0xef, 0x61, 0x9e, 0x3d, 0xe1, 0x8a, 0x2f, 0x3e, 0x7a, 0x11, 0x51, 0x3d,
  0xa6, 0x1d, 0x90, 0x3a, 0xd7, 0x34, 0x43, 0xbe, 0x86, 0x2f, 0x02, 0xbd,
  0x91, 0x5e, 0x53, 0xbe, 0xc0, 0x17, 0x0c, 0x3e, 0x63, 0x0a, 0xd9, 0xbc,
  0xab, 0x26, 0xce, 0xbd, 0x6f, 0x81, 0xf8, 0xbd, 0xe2, 0x83, 0x80, 0x3d,
  0x23, 0xaf, 0x1f, 0xbe, 0x4b, 0xe1, 0x21, 0xbe, 0xe5, 0x5a, 0xcf, 0x3d,
  0x62, 0xb4, 0x88, 0xbe, 0x18, 0x47, 0x13, 0xbe, 0x46, 0xdc, 0x25, 0xbe,
  0x5a, 0x83, 0x22, 0xbe, 0xc3, 0xc3, 0x6e, 0xbe, 0xe6, 0xdc, 0xfa, 0x3d,
  0x90, 0xf5, 0x76, 0xbe, 0xd9, 0x6d, 0x8a, 0xbc, 0x14, 0x12, 0x7e, 0xbe,
  0x9b, 0xe7, 0xf0, 0xbc, 0xe5, 0x9b, 0x56, 0xbe, 0x80, 0xa5, 0x58, 0x3e,
  0xe0, 0x67, 0xbc, 0x3c, 0xac, 0x09, 0x68, 0xbd, 0xc1, 0x0f, 0x02, 0xbe,
  0x10, 0xe0, 0x66, 0xbe, 0x1f, 0xa4, 0xef, 0xbd, 0x44, 0x1f, 0x36, 0xbe,
  0x4d, 0xea, 0x2d, 0xbd, 0x45, 0x49, 0x4e, 0x3e, 0x67, 0x65, 0xa0, 0xbd,
  0x6f, 0xb1, 0x31, 0xbd, 0x9f, 0x1b, 0x15, 0xbe, 0xa8, 0x5a, 0x8c, 0xbe,
  0x73, 0x56, 0x6b, 0xbe, 0x80, 0x46, 0x11, 0xbe, 0x5e, 0x64, 0x08, 0xbe,
  0x2f, 0xa6, 0x65, 0x3d, 0x5f, 0xe5, 0xa1, 0x3d, 0xc7, 0x0b, 0xb2, 0xbd,
  0x51, 0xe1, 0x9a, 0xbe, 0x86, 0xa1, 0x8b, 0xbe, 0x64, 0x67, 0x6b, 0xbe,
  0x9d, 0xe3, 0xcd, 0xbd, 0xf5, 0x30, 0x14, 0xbd, 0x89, 0x76, 0x70, 0xbd,
  0xe7, 0x2e, 0xd4, 0x3d, 0x5e, 0xc3, 0x4a, 0xbe, 0xc8, 0x15, 0xbf, 0xbd,
  0x5b, 0x01, 0xbc, 0x3d, 0x03, 0xc9, 0x6c, 0xbe, 0x0f, 0x0c, 0x51, 0xbd,
  0x5d, 0x1e, 0x64, 0xbe, 0x7e, 0x85, 0xcc, 0x3d, 0x1d, 0xa1, 0x80, 0xbe,
  0xc4, 0x9a, 0x23, 0x3d, 0x2f, 0x09, 0x20, 0xbe, 0x62, 0xab, 0xb8, 0xbc,
  0x08, 0xf7, 0xbe, 0xbd, 0xc5, 0x65, 0x56, 0x3d, 0x13, 0xcc, 0x34, 0x3d,
  0x9b, 0x02, 0xf1, 0x3c, 0x12, 0x4b, 0x69, 0xbd, 0x64, 0xd5, 0x74, 0x3c,
  0x6c, 0x78, 0x8f, 0xbe, 0xdb, 0xe4, 0x70, 0xbe, 0xba, 0x2c, 0x60, 0xbe,
  0x5c, 0x8b, 0xac, 0xbd, 0x68, 0x64, 0xaa, 0x3d, 0xea, 0xe8, 0x54, 0x3d,
  0x67, 0x89, 0xe4, 0x3b, 0xf7, 0xe9, 0xcc, 0xbb, 0x8d, 0xcf, 0x85, 0x3c,
  0x7f, 0x46, 0xa3, 0x3d, 0x36, 0x0e, 0x13, 0xbe, 0xd5, 0x27, 0x45, 0x3d,
  0xdd, 0xf5, 0x87, 0x3c, 0x00, 0x8d, 0x56, 0x3d, 0xf2, 0x94, 0x7d, 0xbd,
  0x22, 0x54, 0x3f, 0xbe, 0x9a, 0x20, 0xb5, 0xbe, 0xe8, 0x87, 0x80, 0xbe,
  0x39, 0x21, 0x86, 0xbe, 0xad, 0x8c, 0x54, 0xbe, 0xcd, 0x7f, 0x78, 0xbd,
  0xa7, 0xc5, 0xe3, 0x3d, 0x64, 0x9c, 0x15, 0x3b, 0xd0, 0xa5, 0xe2, 0x3c,
  0x6d, 0x9a, 0x5c, 0xbe, 0x69, 0x6f, 0xa8, 0xbe, 0xd9, 0x1a, 0x4b, 0x3e,
  0xfd, 0x86, 0x5d, 0x3d, 0x0e, 0x88, 0x0f, 0xbf, 0xba, 0x9f, 0x64, 0x3e,
  0xe6, 0xad, 0x5c, 0x3e, 0x19, 0x38, 0x10, 0xbf, 0x88, 0xfc, 0xf2, 0xbe,
  0x17, 0xed, 0xcb, 0x3d, 0x30, 0x85, 0x65, 0xbe, 0xd1, 0xca, 0xd3, 0x3a,
  0x50, 0x0d, 0xf7, 0xbe, 0x1b, 0x2c, 0x21, 0x3e, 0x8f, 0x53, 0x22, 0xbe,
  0x19, 0xaf, 0x3b, 0x3e, 0x12, 0xd6, 0xaa, 0xbc, 0x68, 0xef, 0x8f, 0xbe,
  0x9a, 0x2f, 0xa3, 0x3e, 0x3c, 0xf7, 0x02, 0xbf, 0xa7, 0xd7, 0x9e, 0x3e,
  0x43, 0xf3, 0x41, 0x3d, 0xd2, 0x81, 0x99, 0xbe, 0xbb, 0x81, 0x11, 0xbe,
  0xe7, 0x8b, 0xbe, 0xbe, 0x0d, 0xe2, 0xf5, 0x3e, 0xa1, 0x60, 0x1d, 0x3e,
  0x93, 0x91, 0x19, 0x3d, 0x67, 0x84, 0x26, 0xbe, 0x2d, 0x46, 0x91, 0x3d,
  0x9e, 0x1b, 0x54, 0xbe, 0x5a, 0xd6, 0x0a, 0x3e, 0xc7, 0x4d, 0x11, 0x3d,
  0x7c, 0x07, 0x70, 0xbe, 0x26, 0xe5, 0x83, 0xbd, 0x4c, 0xcd, 0x5c, 0xbe,
  0x35, 0x07, 0x8e, 0x3e, 0xf7, 0x7f, 0x6d, 0x3e, 0xec, 0xbf, 0xd1, 0xbe,
  0xc4, 0xa1, 0x56, 0x3e, 0x6f, 0x5c, 0x90, 0xbe, 0x0e, 0x7c, 0xda, 0x3e,
  0x4d, 0x00, 0x94, 0x3e, 0xd7, 0x65, 0xc6, 0x3d, 0x15, 0x9c, 0x6f, 0xbc,
  0xf2, 0x5b, 0x5b, 0x3d, 0x27, 0xbc, 0x08, 0xbe, 0xd6, 0x1c, 0xb1, 0xbc,
  0x3b, 0xbc, 0x1d, 0x3d, 0x87, 0x29, 0xe3, 0x3c, 0xac, 0x77, 0xdf, 0xbd,
  0x4b, 0xdb, 0x94, 0xbe, 0x4c, 0x08, 0xd6, 0xbd, 0xfe, 0x43, 0xd2, 0x3c,
  0xff, 0xf7, 0xc1, 0xbd, 0xa2, 0x96, 0x8f, 0x3e, 0x73, 0xae, 0xc5, 0xbd,
  0x6e, 0x8b, 0x10, 0x3f, 0xcf, 0x5b, 0x72, 0x3e, 0xd9, 0x85, 0xc9, 0x3c,
  0x5a, 0xb9, 0x62, 0xbe, 0x1e, 0xee, 0x90, 0x3d, 0xf6, 0x11, 0x5f, 0xbd,
  0x0c, 0xa4, 0xc8, 0xbb, 0x95, 0x80, 0xfa, 0xbc, 0x79, 0xf6, 0x8d, 0xbe,
  0x8e, 0x6f, 0xfa, 0xbd, 0xe1, 0xe4, 0x41, 0xbe, 0xf1, 0x4e, 0x3c, 0x3d,
  0x34, 0x02, 0x40, 0x3d, 0xce, 0xc4, 0xe9, 0x3d, 0xe9, 0xf3, 0xb4, 0x3d,
  0xfe, 0xb3, 0x87, 0xbe, 0xdc, 0x09, 0x1e, 0x3f, 0x2a, 0xb2, 0x9d, 0x3b,
  0x3f, 0xc0, 0x88, 0x3c, 0x5c, 0x53, 0x38, 0xbe, 0x42, 0xef, 0x52, 0x3d,
  0x6b, 0x07, 0x6f, 0xbe, 0x12, 0x2a, 0x85, 0x3e, 0xf5, 0x2e, 0x84, 0x3c,
  0xfa, 0x16, 0x8a, 0xbe, 0x9a, 0x29, 0x2d, 0xbe, 0x2b, 0xb8, 0xa3, 0xbe,
  0x31, 0xdb, 0x1b, 0xbe, 0x47, 0x87, 0x36, 0x3e, 0x81, 0x44, 0xcb, 0xbe,
  0xea, 0x2e, 0x9b, 0x3e, 0x24, 0x70, 0x49, 0xbe, 0xf5, 0x39, 0x08, 0x3f,
  0x4f, 0x6a, 0x1b, 0x3d, 0x0b, 0x1c, 0xd7, 0x3d, 0x75, 0xb6, 0x51, 0xbe,
  0x86, 0x8d, 0x59, 0xbd, 0x3d, 0xb4, 0x06, 0xbf, 0xcc, 0xaf, 0x90, 0x3e,
  0xca, 0x19, 0xcf, 0x3c, 0xa1, 0xe6, 0x8e, 0xbe, 0x36, 0x22, 0xe0, 0xbd,
  0x55, 0x8a, 0xb9, 0xbe, 0xf3, 0xf3, 0xa6, 0xbd, 0x49, 0x07, 0xcd, 0x3d,
  0xeb, 0xfc, 0x8b, 0x3c, 0xf9, 0x3c, 0x1b, 0xbb, 0xa6, 0xf7, 0x08, 0x3d,
  0xb6, 0xec, 0x39, 0x3e, 0xe1, 0xeb, 0x1d, 0x3d, 0x64, 0x1c, 0xad, 0x3c,
  0xe4, 0x78, 0x95, 0xbe, 0x81, 0x86, 0x97, 0xba, 0xf4, 0xce, 0xa3, 0xbe,
  0xfb, 0x56, 0x1f, 0xbc, 0x82, 0x0e, 0x37, 0x3d, 0xc6, 0xb0, 0x28, 0xba,
  0x1d, 0x79, 0x8a, 0xbd, 0xf1, 0x8e, 0xe8, 0x3c, 0xfb, 0x96, 0xdd, 0x3c,
  0x96, 0x6c, 0x28, 0x3d, 0xeb, 0x5d, 0x7a, 0xbe, 0xde, 0x45, 0xfd, 0xbd,
  0xf9, 0xa4, 0x9a, 0xbc, 0xfd, 0xd1, 0xbd, 0xbe, 0x86, 0x66, 0x57, 0xbc,
  0x10, 0xbe, 0xd8, 0x3e, 0x03, 0x52, 0x5b, 0x3e, 0xc4, 0x8f, 0xab, 0xbe,
  0xcb, 0x4d, 0xf7, 0xbd, 0x36, 0xb5, 0x7c, 0xbe, 0x49, 0xce, 0x14, 0xbe,
  0x1e, 0x0c, 0x5a, 0x3d, 0xff, 0xc5, 0xfe, 0xbd, 0x66, 0x41, 0xd1, 0x3d,
  0x1e, 0xc5, 0x25, 0x3e, 0x71, 0x61, 0x9b, 0xbd, 0x63, 0xc2, 0x91, 0x3e,
  0xda, 0x1b, 0xa3, 0x3d, 0x1f, 0x78, 0x9a, 0x3a, 0x94, 0xb3, 0x47, 0xbe,
  0x50, 0x75, 0xa0, 0xbd, 0xc4, 0x7a, 0x59, 0xbe, 0xdf, 0x53, 0xcb, 0xbd,
  0x5e, 0xac, 0x16, 0x3e, 0x9e, 0xeb, 0x32, 0xbd, 0x2f, 0xc0, 0xb6, 0xbe,
  0x16, 0xe3, 0x3c, 0xbd, 0x3f, 0x0a, 0x80, 0x3e, 0xbf, 0x5e, 0xeb, 0xbd,
  0x42, 0x4b, 0x2c, 0xbe, 0x94, 0x37, 0x69, 0x3e, 0x7a, 0xc7, 0xfa, 0xbd,
  0x59, 0x05, 0x12, 0x3e, 0x34, 0xee, 0x16, 0x3e, 0x1c, 0xee, 0x80, 0x3e,
  0xc5, 0x72, 0xc2, 0xbd, 0xf8, 0x92, 0x86, 0xbd, 0xe8, 0x7b, 0x8a, 0xbe,
  0xe8, 0x2e, 0x77, 0x3d, 0xcd, 0xe2, 0x7d, 0xbd, 0x02, 0x39, 0xa2, 0x3e,
  0x81, 0x58, 0x2c, 0xbe, 0xd1, 0x78, 0xba, 0xbd, 0x21, 0xf7, 0xac, 0x3d,
  0x98, 0x46, 0x4d, 0xbe, 0x10, 0x5d, 0xed, 0x3d, 0x42, 0x37, 0x52, 0x3e,
  0xf3, 0xb0, 0x34, 0xbd, 0x95, 0x8a, 0xc9, 0x3e, 0x02, 0x4b, 0xca, 0xbd,
  0xa7, 0x2f, 0xe3, 0x3e, 0x45, 0xc0, 0x99, 0xbd, 0x7f, 0x56, 0x79, 0x3d,
  0x6d, 0x8b, 0x36, 0xbe, 0xf5, 0x18, 0xf0, 0x3e, 0x7d, 0x88, 0xa2, 0x3e,
  0x47, 0x68, 0x73, 0x3e, 0xd8, 0x3e, 0x8b, 0x3c, 0x02, 0x91, 0x60, 0xbc,
  0x84, 0x3e, 0x1c, 0xbd, 0xed, 0xf0, 0x41, 0xbe, 0xe7, 0x0f, 0x53, 0xbc,
  0xa7, 0x08, 0x04, 0x3e, 0x75, 0x1a, 0xf8, 0x3d, 0x06, 0xd0, 0x01, 0xbd,
  0x8f, 0x4d, 0x40, 0xbc, 0xde, 0x20, 0x2b, 0x3e, 0x9a, 0xfd, 0x68, 0xbe,
  0x6f, 0x54, 0x3d, 0xbd, 0x16, 0x4a, 0xe8, 0x3c, 0x75, 0x96, 0xc7, 0x3e,
  0xb7, 0x46, 0x8d, 0x3c, 0x54, 0xf8, 0x92, 0x3e, 0x79, 0xd2, 0x96, 0xbe,
  0x55, 0x8d, 0x9b, 0xbc, 0xe9, 0x7d, 0x31, 0x3d, 0x99, 0x3b, 0x0e, 0xbd,
  0xa9, 0x0e, 0x9d, 0xbe, 0xfe, 0x61, 0xcf, 0xbd, 0x5c, 0x2a, 0x43, 0xbd,
  0x2d, 0x83, 0x1b, 0x3e, 0x9f, 0xf6, 0x38, 0xbe, 0xaf, 0x8b, 0x9c, 0xbd,
  0x7f, 0xaf, 0xa4, 0xbe, 0x2c, 0x18, 0xdd, 0xbd, 0x7f, 0x1a, 0x30, 0xbd,
  0x78, 0x1c, 0x80, 0xbe, 0xe4, 0xe7, 0xe9, 0xbd, 0xf9, 0xa7, 0x91, 0x3d,
  0xd3, 0x23, 0xc7, 0xbe, 0x15, 0x54, 0xfc, 0x3d, 0x68, 0x38, 0xf0, 0x3a,
  0xb3, 0x29, 0x35, 0x39, 0x89, 0x22, 0x15, 0x3d, 0x3b, 0x37, 0xc9, 0xbd,
  0x95, 0x51, 0x27, 0x3d, 0x8c, 0x09, 0xb5, 0xbc, 0x87, 0x7c, 0xfb, 0xbc,
  0x3e, 0xc8, 0x83, 0xbd, 0xf6, 0x40, 0x87, 0xbe, 0xe0, 0xfc, 0x8b, 0xbe,
  0x12, 0x22, 0xc1, 0xbd, 0x4a, 0xef, 0xde, 0x3d, 0xcf, 0x87, 0x1b, 0xbe,
  0xdd, 0xa2, 0x26, 0x3e, 0x84, 0x2b, 0xbb, 0xbe, 0x26, 0x86, 0x10, 0xbd,
  0xbd, 0x29, 0x82, 0xbe, 0x7b, 0xf3, 0x66, 0x3e, 0x08, 0x5d, 0xb6, 0xbb,
  0x29, 0xe9, 0x15, 0xbf, 0xe9, 0x35, 0x73, 0x3c, 0x73, 0x8b, 0xcc, 0x3d,
  0xd8, 0xd0, 0xe9, 0xbe, 0xef, 0xa8, 0xf6, 0xbe, 0xf8, 0x94, 0x0f, 0x3e,
  0x39, 0xaa, 0x48, 0xbe, 0x67, 0x07, 0x3d, 0x3d, 0xbc, 0x72, 0xbf, 0xbe,
  0x98, 0xad, 0x24, 0x3e, 0x1e, 0x8f, 0xbb, 0xbe, 0x6f, 0x21, 0x13, 0x3d,
  0xa8, 0xe1, 0xac, 0x3c, 0x0f, 0xd1, 0x88, 0xbe, 0x4d, 0x80, 0xaa, 0x3d,
  0x21, 0x3f, 0x1e, 0xbf, 0xf9, 0x80, 0xc8, 0x3e, 0x98, 0x1e, 0x37, 0x3e,
  0xcf, 0xbc, 0x56, 0xbe, 0x4e, 0x8a, 0x42, 0xbe, 0x0f, 0x9d, 0xf8, 0xbe,
  0x83, 0x24, 0xba, 0x3e, 0x0e, 0xb2, 0x8d, 0xbd, 0x09, 0xa0, 0xc7, 0x3d,
  0xec, 0xa8, 0xdb, 0xbd, 0x43, 0xf6, 0xcb, 0x3e, 0xaa, 0xa1, 0x43, 0xbe,
  0x08, 0x56, 0xcb, 0x3d, 0x8c, 0xc9, 0x80, 0x3d, 0xf5, 0x7e, 0x8b, 0xbe,
  0xf5, 0x16, 0x1f, 0xbe, 0xe8, 0x67, 0xc5, 0xbd, 0xd4, 0xc9, 0xc9, 0x3e,
  0xe6, 0x1c, 0x02, 0xbd, 0x90, 0x7d, 0x6d, 0xbe, 0x8c, 0x4d, 0x5b, 0x3e,
  0xaa, 0x2f, 0x46, 0xbe, 0xf3, 0xff, 0x87, 0x3e, 0xf1, 0xdb, 0x9f, 0x3e,
  0xc7, 0x1c, 0x8f, 0x3b, 0x83, 0xc3, 0x6f, 0xba, 0xda, 0x22, 0xe8, 0x3e,
  0x8c, 0x5f, 0x4f, 0xbe, 0x2b, 0x33, 0x6a, 0xbb, 0x6d, 0xbb, 0x4d, 0x3c,
  0x85, 0xfd, 0x4d, 0xbe, 0xa5, 0x43, 0x7a, 0xbe, 0x51, 0xfe, 0x84, 0xbe,
  0xc3, 0x07, 0xc2, 0x3d, 0x98, 0x1e, 0x03, 0x3e, 0xf2, 0xaa, 0x90, 0x3d,
  0x92, 0x51, 0xef, 0x3d, 0x89, 0x81, 0x09, 0xbe, 0xdd, 0x48, 0xd1, 0x3e,
  0xaf, 0xb6, 0x25, 0x3e, 0x2f, 0x01, 0xbb, 0x3c, 0x73, 0x01, 0xac, 0xbd,
  0x33, 0x80, 0x8a, 0x3e, 0xd0, 0xdf, 0x87, 0xbe, 0x59, 0xf2, 0x81, 0x3e,
  0xa8, 0x9e, 0x8a, 0x3d, 0x28, 0x74, 0xc5, 0xbe, 0x0e, 0xa7, 0xdd, 0xbd,
  0x1b, 0x83, 0xcb, 0xbd, 0x05, 0x56, 0x88, 0x3e, 0xfa, 0x96, 0x56, 0x3c,
  0xdf, 0x18, 0x18, 0x3e, 0x53, 0x21, 0x94, 0x3d, 0xf1, 0xd4, 0x09, 0xbe,
  0xe2, 0xcd, 0xed, 0x3e, 0xd3, 0x2b, 0x95, 0x3d, 0x46, 0xf2, 0x1b, 0x3c,
  0x9f, 0x02, 0x85, 0xbd, 0x75, 0x4a, 0x0f, 0x3e, 0x63, 0x71, 0x8a, 0xbe,
  0xbf, 0x96, 0x38, 0x3d, 0x12, 0xeb, 0x15, 0x3d, 0xe4, 0x6f, 0xef, 0xbe,
  0x79, 0x5a, 0x7a, 0xbe, 0x9e, 0x87, 0x86, 0xbe, 0x26, 0x88, 0x59, 0x3e,
  0x7b, 0xc7, 0x1f, 0x3e, 0x5b, 0xd9, 0x7a, 0xbe, 0xd7, 0x6b, 0xc8, 0xbd,
  0x10, 0xe3, 0x92, 0xbe, 0xd9, 0xb7, 0xd3, 0x3e, 0x10, 0x8d, 0x88, 0x3d,
  0x97, 0x6f, 0xa5, 0x3d, 0xe3, 0x9b, 0xde, 0xbd, 0xf4, 0x7e, 0x75, 0x3e,
  0x1d, 0x49, 0x46, 0xbf, 0x8a, 0x42, 0x7c, 0x3d, 0x14, 0x42, 0x8e, 0x3a,
  0x23, 0xbf, 0x19, 0xbf, 0x1a, 0x05, 0xaf, 0xbe, 0xa1, 0x77, 0x01, 0xbf,
  0x76, 0x71, 0x6a, 0xbd, 0xe1, 0x3f, 0xca, 0x3d, 0x54, 0x92, 0x32, 0xbe,
  0x1a, 0x31, 0x54, 0x38, 0x31, 0xd7, 0x17, 0x3d, 0x65, 0x36, 0xef, 0x3d,
  0x62, 0x03, 0x04, 0x3c, 0xd8, 0x68, 0x3b, 0x3d, 0x3f, 0x83, 0x5c, 0xbe,
  0x5a, 0x6a, 0x68, 0xbe, 0x23, 0x88, 0xb8, 0xbe, 0xa4, 0x0c, 0x1d, 0xbd,
  0x48, 0x33, 0x89, 0xbc, 0xd7, 0x53, 0x3e, 0xbd, 0x7c, 0x8b, 0xd9, 0x3d,
  0xec, 0x4a, 0xd3, 0xbd, 0xd4, 0x2b, 0x41, 0xbd, 0x89, 0xb8, 0xd1, 0x3d,
  0x22, 0xc0, 0xb2, 0x3d, 0x91, 0x30, 0x93, 0x3b, 0x75, 0xb7, 0x87, 0xbd,
  0x41, 0xf5, 0xdb, 0x3d, 0x59, 0xb3, 0x45, 0xbc, 0x91, 0x51, 0xa0, 0xbe,
  0x03, 0x99, 0x48, 0xbe, 0x87, 0xb2, 0x01, 0x3d, 0xd4, 0x62, 0x06, 0xbe,
  0x23, 0x23, 0x25, 0x3d, 0x6b, 0x73, 0x6f, 0x3d, 0x6e, 0x2b, 0x40, 0xbd,
  0x28, 0x88, 0xd0, 0x3b, 0x35, 0x25, 0x46, 0xbe, 0xd5, 0x64, 0x8e, 0xb9,
  0x87, 0xa8, 0xb8, 0xbd, 0x6d, 0x58, 0x1c, 0x3e, 0x2f, 0x8e, 0x0b, 0xbd,
  0x16, 0xd3, 0x5c, 0xbd, 0x0c, 0xe5, 0xa7, 0x3e, 0xe4, 0xcc, 0x3e, 0x3e,
  0xb5, 0x96, 0x34, 0xbe, 0xf6, 0x20, 0x0b, 0xbe, 0x22, 0xf3, 0x29, 0x3e,
  0x10, 0x33, 0xd3, 0xbd, 0x61, 0x64, 0x07, 0x3e, 0xd3, 0x78, 0xe0, 0x3b,
  0x3e, 0x48, 0xdf, 0x3d, 0x6c, 0x4d, 0xed, 0xbd, 0x8f, 0x5c, 0xf1, 0xbd,
  0x23, 0x8d, 0x8a, 0xbd, 0xf4, 0x6b, 0x06, 0x3c, 0x08, 0x1c, 0xc4, 0x3d,
  0xa5, 0x77, 0xe6, 0x3d, 0x1d, 0x7d, 0x30, 0x3e, 0x3f, 0xb9, 0x95, 0x3e,
  0x40, 0x87, 0x74, 0xbc, 0xcb, 0x8a, 0xab, 0xbe, 0x8c, 0x97, 0x7c, 0xbd,
  0xc5, 0x20, 0xb3, 0x3b, 0x71, 0x24, 0x43, 0xbe, 0x2c, 0x14, 0x8b, 0x3e,
  0x3e, 0x31, 0x00, 0x3e, 0xe5, 0xbe, 0xc8, 0x3c, 0x90, 0xa2, 0x53, 0x3d,
  0x89, 0x37, 0xdb, 0xbd, 0x7e, 0xe8, 0xdd, 0xbc, 0xdc, 0xd3, 0x11, 0x3e,
  0xb3, 0x6b, 0x3a, 0xbe, 0xc1, 0x57, 0x7c, 0xbc, 0x9d, 0xbb, 0xa9, 0xbc,
  0x67, 0x0b, 0xc5, 0x3e, 0x5e, 0x42, 0x85, 0x3c, 0x03, 0x4f, 0x83, 0xbe,
  0x51, 0x8f, 0x14, 0x3d, 0xd1, 0x91, 0x9f, 0x3d, 0x8d, 0x8c, 0xda, 0xbd,
  0xf4, 0x9c, 0x24, 0x3e, 0xe0, 0xa9, 0xd6, 0xbd, 0x05, 0xdf, 0xf7, 0xbc,
  0xfe, 0x3d, 0x0d, 0xbe, 0xd5, 0x41, 0x72, 0xbe, 0xdc, 0xd7, 0xd9, 0xbd,
  0xbf, 0x43, 0xed, 0x3c, 0xf8, 0x0f, 0xe7, 0xbb, 0x8d, 0x4e, 0x08, 0xbd,
  0x09, 0x05, 0xf9, 0xbc, 0x4c, 0x75, 0x55, 0x3e, 0x5b, 0x59, 0xf3, 0x3d,
  0xe9, 0xbb, 0x89, 0xbe, 0x6a, 0xe5, 0xd3, 0xbd, 0x55, 0x6e, 0x29, 0x3e,
  0x25, 0x0e, 0x3d, 0xbc, 0x06, 0xec, 0x9c, 0xbc, 0x42, 0x43, 0x39, 0x3d,
  0xbd, 0x7d, 0xf8, 0xbd, 0xd0, 0x4e, 0x18, 0x3e, 0xf8, 0xca, 0x1e, 0xbe,
  0xbf, 0x08, 0x5b, 0xbe, 0x1c, 0x5e, 0xcc, 0x3d, 0x2b, 0xb9, 0x88, 0xbd,
  0x8c, 0x20, 0x4d, 0x3d, 0x4f, 0x14, 0xd6, 0xbd, 0xc0, 0x14, 0xef, 0x3e,
  0x66, 0xca, 0x2a, 0x3e, 0x74, 0x47, 0x37, 0xbe, 0x4e, 0x6d, 0x81, 0xbe,
  0xc6, 0xda, 0x8e, 0xbc, 0x6d, 0x60, 0x52, 0xbe, 0xb0, 0x3b, 0x1e, 0xbc,
  0xbe, 0x49, 0xa5, 0x3d, 0x30, 0x68, 0xdf, 0xbd, 0x0b, 0x41, 0xed, 0xbc,
  0x5d, 0x4f, 0x64, 0xbe, 0x62, 0xd9, 0xdc, 0x3c, 0x33, 0xfb, 0xa1, 0xbd,
  0x8e, 0xcf, 0xeb, 0x3d, 0x31, 0x05, 0x82, 0x3d, 0xe8, 0x8a, 0x19, 0x3d,
  0x96, 0xd8, 0xae, 0x3c, 0x45, 0xc4, 0xd6, 0xbc, 0x8f, 0x34, 0x02, 0xbd,
  0x82, 0xfa, 0x90, 0xbd, 0xe9, 0x66, 0xab, 0xbd, 0xdf, 0xae, 0xa2, 0xbd,
  0xc4, 0x25, 0x67, 0x3d, 0x1b, 0xd4, 0xd0, 0xbc, 0xf8, 0x1a, 0xc9, 0xbd,
  0xb6, 0x94, 0xa2, 0xbe, 0xea, 0x8a, 0x47, 0x3c, 0x5b, 0xa6, 0xd9, 0x3c,
  0x0b, 0x97, 0x49, 0xbe, 0xb6, 0xea, 0x63, 0x3c, 0xcc, 0xd2, 0x38, 0xbd,
  0xec, 0x8e, 0xb8, 0xbd, 0x6e, 0x89, 0xa4, 0xbd, 0xa0, 0xb4, 0x0d, 0x3d,
  0xd5, 0x4e, 0x5b, 0x3c, 0x61, 0xed, 0x1c, 0xbe, 0x55, 0x8d, 0x63, 0xbe,
  0x93, 0xe3, 0x39, 0xbe, 0xa1, 0xe2, 0x12, 0x3d, 0x13, 0x9d, 0x05, 0xbe,
  0xf3, 0x16, 0x2a, 0x3d, 0x77, 0xc8, 0x9f, 0xbe, 0x19, 0x23, 0x9e, 0xbd,
  0xc2, 0x19, 0x0c, 0x3e, 0xc5, 0xb2, 0x8d, 0x3d, 0xfb, 0xa5, 0x1d, 0xbe,
  0xdb, 0x61, 0xa1, 0x3d, 0xe3, 0x30, 0xd3, 0xbe, 0x97, 0x8d, 0x8c, 0xbe,
  0x4c, 0x5d, 0x69, 0xbe, 0x10, 0xcb, 0x17, 0xbe, 0x17, 0x70, 0xe6, 0xbd,
  0x53, 0xa3, 0x36, 0x3c, 0x93, 0x86, 0x71, 0xbe, 0x43, 0x55, 0x35, 0xbe,
  0x5d, 0x24, 0x41, 0xbe, 0xf9, 0xaf, 0xf5, 0x3c, 0x34, 0x80, 0x92, 0xbe,
  0x48, 0x4b, 0xbf, 0x3d, 0xaf, 0x31, 0xe6, 0xbd, 0xbf, 0x68, 0x49, 0xbe,
  0xf9, 0x2f, 0xad, 0xbb, 0x9d, 0x7b, 0x09, 0xbe, 0xe6, 0xfd, 0x77, 0xbe,
  0x64, 0xa8, 0x0d, 0x3d, 0xce, 0x70, 0x0f, 0x3d, 0x91, 0x17, 0x9e, 0xbe,
  0xa8, 0x00, 0x61, 0x3c, 0xbe, 0xe4, 0x24, 0xbd, 0xdc, 0x8d, 0x3d, 0xbe,
  0x99, 0x15, 0x51, 0xbe, 0x2d, 0xcb, 0x9b, 0x3d, 0xfb, 0xa3, 0x14, 0x3d,
  0xe2, 0x36, 0x57, 0xbe, 0xfa, 0x54, 0x03, 0x3d, 0x40, 0xc1, 0x39, 0xbe,
  0x85, 0x43, 0xb1, 0x3d, 0x5e, 0xf1, 0xc2, 0xbc, 0x24, 0xaf, 0x02, 0x3e,
  0x73, 0xe8, 0x68, 0xbe, 0xff, 0x71, 0x88, 0x3d, 0xe5, 0x53, 0x79, 0xbe,
  0xfd, 0x9d, 0x12, 0xbd, 0x01, 0x35, 0x2f, 0xbb, 0x12, 0x72, 0x80, 0xbd,
  0xb2, 0x93, 0x20, 0xbe, 0x0b, 0xdd, 0x5f, 0x3d, 0xa5, 0x8b, 0x2b, 0xbe,
  0xb0, 0xb6, 0xd3, 0xbc, 0xfc, 0x1d, 0x73, 0xbd, 0x87, 0xfb, 0x0a, 0x3e,
  0x65, 0x19, 0x38, 0x3e, 0xc8, 0x23, 0x0e, 0xbe, 0x53, 0xdf, 0x89, 0xbc,
  0x03, 0x51, 0x23, 0x3e, 0x39, 0x57, 0x49, 0xbe, 0x8e, 0x3a, 0x42, 0xbe,
  0x15, 0xd8, 0x0f, 0x3e, 0xbb, 0x02, 0x28, 0xbe, 0xba, 0x0e, 0x9a, 0x3d,
  0x24, 0xa7, 0xa7, 0x3d, 0xfa, 0x74, 0xe1, 0xbd, 0x5e, 0x3b, 0xc7, 0x3d,
  0xb2, 0x7f, 0x5c, 0xbe, 0x7d, 0xb6, 0x79, 0xbc, 0x5b, 0x48, 0x10, 0xbe,
  0xd7, 0x15, 0x29, 0xbe, 0xb9, 0x3f, 0x8a, 0xbd, 0xdb, 0x3d, 0x1a, 0xbd,
  0xc9, 0xbb, 0xb0, 0x3d, 0xa5, 0x16, 0xb0, 0x3d, 0x5d, 0xb5, 0xf6, 0xbd,
  0x44, 0x1c, 0x1e, 0x3d, 0xa2, 0x7b, 0xee, 0x3d, 0x9e, 0x6f, 0x4d, 0xbe,
  0x8d, 0x48, 0xb4, 0xbd, 0x43, 0x6e, 0xf6, 0xba, 0xf6, 0x62, 0x4c, 0xbe,
  0xca, 0x8a, 0x85, 0xbd, 0xd5, 0xb7, 0x7f, 0xbe, 0x6d, 0xbe, 0x24, 0x3d,
  0x45, 0x87, 0x3c, 0xbe, 0xc1, 0xc2, 0x0b, 0xbe, 0x4c, 0x86, 0x91, 0x3d,
  0x6d, 0x33, 0x6e, 0xbe, 0x05, 0x1c, 0xd3, 0x3d, 0xfb, 0x7e, 0x28, 0xbe,
  0x31, 0xb9, 0x89, 0xbe, 0xdb, 0xa2, 0x0e, 0xbd, 0x72, 0xb5, 0xa9, 0xbd,
  0x82, 0xc1, 0x9d, 0xbe, 0xa8, 0xe6, 0xa5, 0xbd, 0x3c, 0x48, 0xd1, 0xbd,
  0xf0, 0x14, 0xe8, 0x3d, 0x6a, 0xcb, 0xf8, 0xbd, 0xba, 0x3f, 0x78, 0xbe,
  0xf8, 0xb3, 0x0b, 0xbe, 0xae, 0xa3, 0x6a, 0x3e, 0xd8, 0xb1, 0x9a, 0x3c,
  0x4d, 0x1b, 0xce, 0xbe, 0xd0, 0x70, 0x63, 0x3e, 0x97, 0xe6, 0xde, 0x3d,
  0xfc, 0xca, 0x09, 0xbf, 0x72, 0x12, 0xa0, 0xbe, 0xff, 0xb6, 0xaa, 0x3e,
  0x80, 0x1e, 0x7a, 0xbe, 0x1e, 0x66, 0xaf, 0xbd, 0xd6, 0x9a, 0xb9, 0xbe,
  0xc3, 0x59, 0x04, 0x3e, 0x43, 0x63, 0x2f, 0xbe, 0xdb, 0x0d, 0xeb, 0x3d,
  0xc4, 0x70, 0xfd, 0x3d, 0x5c, 0xa3, 0x40, 0xbd, 0xf1, 0xf8, 0x5f, 0x3e,
  0x26, 0x4e, 0x0a, 0xbf, 0xd2, 0x7f, 0x08, 0x3e, 0x6b, 0xf6, 0xa3, 0x3e,
  0x04, 0x58, 0x38, 0xbd, 0x1f, 0xc2, 0x8d, 0x3c, 0xfe, 0xfd, 0x56, 0xbe,
  0xf5, 0x5d, 0x09, 0x3f, 0x82, 0xf0, 0xdb, 0x3d, 0x73, 0xaf, 0xcb, 0xbd,
  0xfc, 0x03, 0x7a, 0xbd, 0xe4, 0xbb, 0x42, 0x3e, 0x0b, 0x6f, 0x90, 0xbe,
  0xaa, 0x7a, 0x28, 0x3e, 0xa5, 0xfb, 0x31, 0x3d, 0xb1, 0x78, 0x9d, 0xbd,
  0x5f, 0x7b, 0xdd, 0x3d, 0xea, 0x1a, 0xc2, 0xbe, 0x73, 0xb9, 0x6b, 0x3e,
  0xf6, 0x0a, 0x99, 0x3d, 0x5e, 0xd1, 0xe2, 0xbd, 0x94, 0xc8, 0x3d, 0x3e,
  0x14, 0xbe, 0x28, 0x3c, 0xe6, 0x60, 0xf3, 0x3e, 0x38, 0x97, 0x86, 0x3e,
  0x0e, 0xad, 0x84, 0x3d, 0xb9, 0x9b, 0xa8, 0x3d, 0xe0, 0xe7, 0x70, 0x3e,
  0x0b, 0x5c, 0x26, 0xbe, 0x2c, 0x3d, 0xc6, 0x3c, 0x25, 0x61, 0x38, 0x3d,
  0x82, 0x86, 0x83, 0x3b, 0x26, 0x34, 0x4e, 0x3c, 0x1e, 0xf1, 0x3c, 0xbe,
  0xd9, 0xb3, 0x35, 0xbb, 0x62, 0x58, 0xd4, 0x3d, 0x73, 0xc8, 0x82, 0x3d,
  0x41, 0x23, 0xd0, 0x3e, 0xb8, 0xf8, 0xe7, 0xbd, 0x65, 0x1e, 0xec, 0x3e,
  0xe5, 0x01, 0x01, 0x3e, 0x46, 0xb4, 0x60, 0xbd, 0x9e, 0xf4, 0xc3, 0xbd,
  0xca, 0xbc, 0x23, 0xbd, 0xb1, 0xf1, 0xd0, 0xbd, 0x35, 0x17, 0xa8, 0x3d,
  0x0c, 0x31, 0xc0, 0x3d, 0x69, 0x71, 0x07, 0xbe, 0xdb, 0x73, 0x76, 0xbe,
  0x43, 0xfd, 0xa6, 0xbe, 0x56, 0x63, 0xa1, 0x3d, 0x37, 0xe8, 0x0d, 0x3e,
  0x4c, 0x4d, 0x07, 0x3e, 0x75, 0xcf, 0xcc, 0x3d, 0xad, 0x4b, 0x5a, 0xbe,
  0x28, 0x30, 0x17, 0x3f, 0x3e, 0x70, 0x73, 0xbb, 0xd1, 0x93, 0x6d, 0xbd,
  0x61, 0x56, 0x34, 0x3c, 0xe1, 0x4b, 0x89, 0x3d, 0x38, 0x9c, 0xd4, 0xbe,
  0xe9, 0xb7, 0x4b, 0x3e, 0xf1, 0xcf, 0x28, 0x3d, 0x3d, 0x2c, 0x4b, 0xbe,
  0x70, 0xa4, 0x2f, 0xbe, 0xea, 0xc5, 0x9b, 0xbe, 0xc0, 0x14, 0xb7, 0xbe,
  0xb6, 0x7b, 0xce, 0xbd, 0xd7, 0xa8, 0x81, 0xbe, 0x87, 0xdd, 0x05, 0x3e,
  0xde, 0xb3, 0x05, 0xbe, 0xe9, 0x68, 0x9f, 0x3e, 0xda, 0x7b, 0x2f, 0xbd,
  0x74, 0x2b, 0x61, 0xbc, 0x9f, 0x11, 0x31, 0xbe, 0x75, 0x5c, 0xea, 0x3d,
  0xb2, 0x24, 0xa0, 0xbe, 0x09, 0x20, 0x6d, 0x3e, 0x5d, 0x67, 0x2e, 0x3d,
  0x2d, 0xf6, 0x10, 0x3d, 0x4c, 0x18, 0x37, 0xbe, 0x9e, 0xea, 0x15, 0xbe,
  0xad, 0x76, 0x88, 0xbd, 0xd7, 0x10, 0x22, 0x3e, 0x5e, 0x05, 0x4a, 0xbd,
  0x0c, 0x95, 0xea, 0xbb, 0xab, 0xc5, 0x9c, 0xbb, 0xd8, 0x2e, 0x6a, 0x3e,
  0x5e, 0x01, 0xd7, 0x3d, 0x4c, 0x3a, 0xae, 0x3c, 0xd8, 0xb5, 0xe6, 0xbd,
  0x4f, 0x25, 0x61, 0x3c, 0x69, 0x8b, 0x59, 0xbe, 0xc5, 0x44, 0xd9, 0x3c,
  0x2e, 0xa4, 0xb7, 0x3d, 0xfa, 0x99, 0x2a, 0xbe, 0xb8, 0x9a, 0xc6, 0xbc,
  0xa2, 0x0e, 0x4b, 0x3d, 0x19, 0x08, 0x20, 0xbf, 0x37, 0x16, 0x83, 0x3e,
  0x23, 0x56, 0x92, 0xbd, 0x8c, 0xa3, 0xf5, 0xbe, 0x49, 0x36, 0x19, 0xbf,
  0x30, 0xd0, 0x8b, 0x3e, 0x1d, 0xf8, 0xc3, 0xbe, 0xeb, 0x1c, 0x34, 0x3c,
  0xad, 0x14, 0xde, 0xbe, 0x49, 0xfa, 0x5d, 0x3c, 0xf4, 0x8f, 0x8b, 0xbd,
  0x96, 0x0a, 0x87, 0xbe, 0x6d, 0x5a, 0xe8, 0x3d, 0x0b, 0x4d, 0xa8, 0xbe,
  0xaf, 0x97, 0x13, 0xbe, 0x11, 0x80, 0x94, 0xbe, 0x60, 0x21, 0xaf, 0x3e,
  0x62, 0x1e, 0x1e, 0x3e, 0x99, 0x28, 0x38, 0xbe, 0x64, 0xcf, 0x99, 0xbe,
  0xd5, 0x16, 0xb6, 0xbe, 0x5d, 0x5a, 0x61, 0x3e, 0x5c, 0x2c, 0x4b, 0x3d,
  0xb1, 0xfa, 0x8f, 0xbc, 0xa5, 0xd4, 0x90, 0x3d, 0x17, 0x68, 0x9b, 0x3e,
  0x8a, 0x55, 0x8d, 0xbd, 0xff, 0x77, 0x58, 0xbe, 0x0f, 0xdf, 0x1e, 0x3d,
  0xd5, 0x94, 0x51, 0xbe, 0xd0, 0xd7, 0xb8, 0xbe, 0x4d, 0xc4, 0xb5, 0xbc,
  0x0f, 0xfa, 0x88, 0x3e, 0x8b, 0x74, 0x02, 0xbd, 0x00, 0x09, 0x81, 0xbe,
  0xd0, 0xdc, 0x79, 0x3e, 0xe7, 0x3d, 0x8a, 0xbe, 0x32, 0xb8, 0x8d, 0x3e,
  0x67, 0xc6, 0xb0, 0x3e, 0x44, 0x38, 0xe0, 0x3d, 0x7f, 0x6a, 0x2f, 0xbe,
  0xb4, 0xb4, 0xa6, 0x3e, 0x5b, 0xbe, 0xe8, 0xbd, 0xa2, 0x64, 0x8e, 0xbe,
  0x4f, 0xd7, 0xc6, 0x3d, 0x3c, 0xe2, 0xa0, 0xbe, 0x5e, 0xde, 0x3d, 0xbe,
  0x81, 0xce, 0xc9, 0xbd, 0xe7, 0x32, 0xe6, 0x3d, 0xa6, 0x19, 0x19, 0x3e,
  0x1e, 0xe9, 0xb2, 0xbd, 0x66, 0xc7, 0x00, 0x3d, 0x0d, 0xc8, 0xda, 0xbd,
  0xc7, 0xda, 0xa2, 0x3e, 0xd9, 0x9d, 0xe2, 0x3d, 0x6f, 0x0d, 0xb2, 0x3b,
  0x0d, 0x0b, 0x5a, 0xbe, 0x8b, 0x7b, 0xe0, 0x3e, 0x87, 0x9b, 0x87, 0x3c,
  0x8f, 0x68, 0xf7, 0xbb, 0x3f, 0x78, 0xa0, 0x3c, 0x8a, 0x7c, 0x1a, 0xbe,
  0x74, 0x56, 0xa2, 0xbd, 0x8f, 0x61, 0xd2, 0xbd, 0x03, 0x0c, 0x30, 0x3e,
  0x9f, 0x7b, 0xd9, 0x3d, 0xe2, 0x5e, 0xa6, 0x3d, 0xd5, 0x34, 0x6e, 0x3e,
  0x33, 0x37, 0x69, 0xbe, 0xf1, 0xc5, 0x8f, 0x3e, 0x74, 0x53, 0x56, 0x3e,
  0x29, 0xe9, 0xe5, 0x3d, 0x2d, 0x74, 0x6f, 0xbe, 0xaf, 0x4b, 0x37, 0x3e,
  0x79, 0x43, 0xf9, 0xbc, 0xa9, 0x76, 0xad, 0x3d, 0x1f, 0x5a, 0xae, 0x3d,
  0x7e, 0x2d, 0xd1, 0xbe, 0xa7, 0xf8, 0x0e, 0xbe, 0xfd, 0x80, 0x32, 0xbd,
  0x74, 0xd7, 0x11, 0x3d, 0x3d, 0xb4, 0x22, 0x3e, 0x7f, 0x80, 0x9f, 0xbe,
  0x1b, 0x6c, 0x39, 0x3e, 0xba, 0x75, 0xa4, 0xbe, 0xbe, 0x07, 0xa9, 0x3e,
  0xfc, 0x15, 0x93, 0x3c, 0xc1, 0x67, 0x12, 0x3c, 0x42, 0xb0, 0xc3, 0xbe,
  0x9c, 0x65, 0xec, 0x3d, 0x03, 0x48, 0xd1, 0xbe, 0x87, 0xad, 0xd4, 0xbd,
  0x51, 0x6c, 0x1e, 0x3c, 0x8a, 0x10, 0xc1, 0xbe, 0x02, 0xf3, 0x2a, 0xbe,
  0x54, 0x85, 0xc8, 0xbe, 0xcf, 0xf6, 0x36, 0x3d, 0xc1, 0x45, 0x12, 0x3e,
  0x7b, 0xf7, 0xf0, 0xbd, 0x75, 0xf6, 0xc2, 0xbd, 0xf0, 0x01, 0x80, 0xbd,
  0x1d, 0x32, 0x3b, 0x3d, 0xa8, 0xac, 0x96, 0xbd, 0xba, 0x53, 0x86, 0x3d,
  0x07, 0xb5, 0xa8, 0xbe, 0xed, 0xe2, 0x1c, 0xbe, 0xd8, 0xbc, 0x02, 0xbe,
  0x49, 0xe1, 0x1f, 0xbe, 0xbf, 0x08, 0xb5, 0x3c, 0x97, 0x43, 0x33, 0xbf,
  0x8a, 0x0a, 0xd9, 0x3b, 0x44, 0x53, 0xff, 0xbd, 0xa5, 0x51, 0xdb, 0xbe,
  0xa8, 0x53, 0x33, 0xbe, 0x34, 0x47, 0xee, 0xbd, 0x70, 0x96, 0xf8, 0xbe,
  0x54, 0x23, 0x82, 0xbe, 0xcb, 0x2b, 0x8b, 0x3e, 0x1c, 0xbc, 0xa1, 0xbe,
  0x8c, 0x4b, 0x6c, 0xbe, 0x6e, 0x00, 0xec, 0xbd, 0xb9, 0x48, 0xbe, 0xbe,
  0x74, 0x8b, 0x8b, 0xbe, 0xce, 0x40, 0x4e, 0xbe, 0xcf, 0x88, 0xc9, 0xbd,
  0xc4, 0xe4, 0xbf, 0xbe, 0x53, 0x94, 0xce, 0xbe, 0xac, 0x10, 0x91, 0xbd,
  0xe7, 0x81, 0x43, 0x3e, 0x54, 0xd4, 0x98, 0xbe, 0xbc, 0xec, 0x41, 0x3d,
  0xa8, 0x3e, 0x18, 0xbe, 0xb4, 0x8b, 0xc8, 0xbe, 0x59, 0x1e, 0x39, 0x3d,
  0x84, 0xa3, 0x20, 0xbd, 0x84, 0xde, 0xd7, 0xbe, 0x0d, 0x8a, 0x33, 0xbe,
  0xd5, 0x67, 0x09, 0xbf, 0xc2, 0x59, 0x7b, 0xbd, 0xd7, 0x0e, 0x39, 0xbe,
  0x12, 0x83, 0xae, 0xbd, 0x03, 0xcc, 0xc3, 0xbe, 0x21, 0x38, 0x0c, 0xbe,
  0x24, 0x5b, 0x5c, 0xbe, 0x9e, 0xb3, 0x48, 0xbd, 0x58, 0x3f, 0x5b, 0xbe,
  0x44, 0xdc, 0x07, 0xbe, 0x39, 0xe4, 0x97, 0x3d, 0x29, 0x22, 0x3d, 0xbe,
  0x23, 0xa5, 0xeb, 0x3d, 0x2c, 0x2a, 0x4c, 0xbe, 0x83, 0xdb, 0xcc, 0xbe,
  0x68, 0xd3, 0x43, 0xbd, 0xe5, 0x81, 0xf5, 0xbe, 0x26, 0x49, 0xca, 0xbe,
  0xe6, 0x5e, 0xcd, 0xbd, 0xc6, 0xb5, 0xdb, 0xbd, 0xe6, 0x6a, 0xb1, 0x3d,
  0x8c, 0x66, 0x59, 0xbe, 0xb8, 0x38, 0x21, 0xbe, 0x9c, 0x02, 0x39, 0xbe,
  0x2b, 0xc9, 0x78, 0xbe, 0x35, 0x4e, 0xa1, 0xbe, 0x0c, 0xaf, 0x9d, 0xbe,
  0x9b, 0xc1, 0xf6, 0xbe, 0x85, 0x21, 0x54, 0xbe, 0xd3, 0xf1, 0x51, 0xbe,
  0x98, 0xe4, 0xcb, 0xbe, 0xc4, 0xc9, 0x88, 0xbe, 0xb5, 0xfa, 0xbc, 0xbe,
  0x09, 0x4d, 0xef, 0xbd, 0x94, 0x41, 0x8f, 0xbe, 0x9d, 0x6b, 0xe7, 0xbd,
  0x9c, 0xf8, 0x2b, 0x3e, 0x73, 0xbf, 0x83, 0x3d, 0x2d, 0xf6, 0xfc, 0xbe,
  0x43, 0x0c, 0xeb, 0x3e, 0xaa, 0x3f, 0x83, 0xbe, 0xd5, 0xc1, 0x6a, 0xbe,
  0xac, 0x2e, 0xd7, 0xbe, 0x8d, 0x76, 0x6a, 0x3d, 0x2c, 0x3b, 0x78, 0xbd,
  0x17, 0x74, 0xc5, 0x3e, 0xeb, 0x17, 0xe1, 0xbe, 0x8d, 0xbc, 0x87, 0x3c,
  0x2b, 0xca, 0x83, 0x3e, 0x83, 0x32, 0xd8, 0x3b, 0x4e, 0x96, 0xd2, 0xbd,
  0x83, 0x1c, 0xef, 0xbd, 0x76, 0x81, 0xb2, 0x3d, 0x3d, 0x97, 0x76, 0x3d,
  0xfe, 0xfd, 0x76, 0x3d, 0xe1, 0x15, 0x4f, 0x3e, 0x5a, 0x08, 0xf4, 0xbd,
  0x18, 0x89, 0x86, 0xbd, 0x0e, 0x54, 0x82, 0x3e, 0xc4, 0xa8, 0xf8, 0x3b,
  0x21, 0xae, 0x26, 0x3e, 0x5c, 0x52, 0xb0, 0x3e, 0x15, 0x0b, 0x0f, 0xbe,
  0x0b, 0x68, 0xc5, 0x3d, 0xfc, 0x69, 0xcb, 0x3e, 0x5d, 0xa2, 0xc0, 0xbd,
  0xbe, 0xda, 0x80, 0x3d, 0xa3, 0x8c, 0x5e, 0xbd, 0x66, 0x33, 0x4b, 0x3e,
  0x48, 0x74, 0x17, 0x3e, 0x28, 0x2f, 0x61, 0x3c, 0x45, 0x5c, 0xb9, 0x3d,
  0x90, 0xaa, 0x8b, 0xbe, 0x46, 0x1a, 0xed, 0x3d, 0x0d, 0x20, 0x26, 0xbd,
  0x34, 0xc0, 0xb2, 0xbd, 0x75, 0x42, 0x01, 0x3e, 0xcc, 0x5e, 0x05, 0x3e,
  0x1f, 0xb8, 0x96, 0x3d, 0x0d, 0x9f, 0x1f, 0x3e, 0x7c, 0x75, 0x22, 0x3e,
  0xb3, 0x13, 0x29, 0x3e, 0x84, 0x0c, 0x08, 0xbc, 0xf4, 0xdb, 0x0d, 0x3f,
  0x36, 0x17, 0x0e, 0xbc, 0x0e, 0x6c, 0x0f, 0xbe, 0x2f, 0xe0, 0x9d, 0xbd,
  0x96, 0x4b, 0xa6, 0x3d, 0x4a, 0x53, 0xe1, 0xbe, 0xde, 0xbd, 0xc3, 0x3d,
  0xbf, 0xe2, 0x17, 0x3e, 0xb5, 0x39, 0xae, 0xbc, 0x1b, 0x53, 0xb3, 0x3d,
  0xf1, 0x79, 0x7b, 0x3e, 0x90, 0x4e, 0xcb, 0xbe, 0x06, 0x10, 0x45, 0xbd,
  0x9c, 0x0c, 0xb1, 0x3e, 0x78, 0x79, 0x2a, 0xbe, 0x0a, 0x85, 0x5e, 0x3e,
  0xe2, 0xf4, 0x9c, 0xbe, 0x98, 0xba, 0xa9, 0x3e, 0x11, 0xe0, 0x93, 0xbe,
  0x54, 0xd5, 0x1a, 0x3d, 0x8b, 0xbf, 0x35, 0x3e, 0x4a, 0x77, 0x81, 0xbe,
  0x7d, 0xcf, 0x4e, 0xbe, 0xc6, 0x55, 0x46, 0xbd, 0x45, 0xdc, 0xc4, 0xb9,
  0xaa, 0xc2, 0x9d, 0x3e, 0x58, 0x3d, 0xa1, 0x3d, 0x6c, 0x2d, 0x25, 0x3d,
  0x3d, 0x67, 0x83, 0x3e, 0x53, 0x23, 0x5b, 0xbd, 0xc9, 0x9f, 0x61, 0x3d,
  0xc3, 0xdf, 0xcf, 0xbd, 0xb1, 0x68, 0x08, 0x3c, 0x63, 0x1f, 0x27, 0xbe,
  0xeb, 0x93, 0x0c, 0xbe, 0x6b, 0x23, 0xa9, 0x3d, 0x37, 0xca, 0x2d, 0x3e,
  0x36, 0x61, 0xb2, 0x3c, 0xfe, 0x82, 0x46, 0xbf, 0x98, 0x03, 0xc0, 0xbe,
  0xc1, 0xf2, 0xde, 0xbe, 0x8d, 0xa6, 0xb9, 0xbd, 0xe6, 0x7f, 0xc2, 0xbd,
  0x53, 0x91, 0xcb, 0x3d, 0x54, 0xa3, 0xd2, 0x3d, 0x8e, 0x06, 0x7e, 0xbe,
  0x11, 0xc3, 0x87, 0x3e, 0x21, 0x09, 0xbf, 0xbe, 0x1b, 0xb9, 0xc0, 0x3d,
  0x9d, 0xf4, 0xa7, 0xbe, 0x08, 0x88, 0x92, 0xbc, 0x64, 0xe4, 0xa8, 0xbe,
  0x11, 0x5f, 0x98, 0xbd, 0xb7, 0x6b, 0xb5, 0xbb, 0x30, 0x7c, 0xba, 0xbe,
  0xf3, 0x12, 0x64, 0xbe, 0xd1, 0x2d, 0x58, 0xbf, 0x90, 0x64, 0x1e, 0xbf,
  0xb5, 0xf7, 0x1d, 0xbe, 0xf5, 0x15, 0xb5, 0x3d, 0xd0, 0x08, 0x9c, 0xbe,
  0xeb, 0x44, 0xc6, 0xbe, 0xaa, 0x78, 0xc6, 0xbd, 0x29, 0x8a, 0x42, 0xbe,
  0x00, 0x94, 0x4f, 0xbd, 0x9c, 0xa6, 0x7a, 0xbe, 0x09, 0xf2, 0x9b, 0xbb,
  0x9b, 0x96, 0x80, 0xbe, 0x87, 0x8a, 0xd7, 0x3d, 0x4a, 0x61, 0x27, 0xbe,
  0xd2, 0x67, 0x35, 0xbe, 0xde, 0xbe, 0xbb, 0x3d, 0x19, 0xb5, 0x15, 0xbf,
  0xe1, 0x87, 0xe8, 0xbe, 0xe2, 0x86, 0x07, 0xbe, 0x80, 0x24, 0x95, 0x3b,
  0xd3, 0xf4, 0x75, 0xbe, 0x5a, 0x1e, 0xa2, 0xbe, 0x3f, 0xb9, 0xbb, 0x3d,
  0xb4, 0x40, 0x26, 0x3d, 0x27, 0xe6, 0x35, 0xbd, 0xe5, 0xdc, 0x97, 0xbe,
  0x93, 0x06, 0x88, 0xbd, 0x96, 0x32, 0x5a, 0xbe, 0x9e, 0x4b, 0x7b, 0x3c,
  0x1b, 0xae, 0x30, 0xbe, 0x5f, 0x93, 0x07, 0xbe, 0xad, 0x24, 0x73, 0xbd,
  0xe6, 0x3e, 0x95, 0xbe, 0x8b, 0xad, 0x06, 0xbf, 0x4a, 0xd9, 0x90, 0xbd,
  0xf9, 0x44, 0x01, 0x3d, 0x25, 0x5f, 0x84, 0xbe, 0x39, 0x38, 0xba, 0xbe,
  0xb6, 0xa9, 0x8f, 0xbc, 0xe3, 0x08, 0xdc, 0xbd, 0xef, 0x18, 0x80, 0xbd,
  0x48, 0x23, 0x8e, 0xbe, 0x45, 0xf2, 0x36, 0x3d, 0xac, 0xde, 0x8b, 0xbd,
  0x26, 0xcb, 0x8f, 0xbe, 0x0c, 0x06, 0x40, 0xbe, 0x42, 0x73, 0xee, 0xbd,
  0xd0, 0x10, 0x48, 0xbe, 0x78, 0x27, 0xa4, 0xbd, 0x6a, 0xfe, 0x06, 0xbf,
  0xa0, 0x1c, 0x1e, 0xbe, 0x8c, 0xd8, 0x79, 0xbd, 0xa2, 0x64, 0xa3, 0xbe,
  0xe1, 0xad, 0x16, 0xbe, 0x57, 0xf3, 0xb7, 0x3d, 0xcd, 0x40, 0x56, 0xbe,
  0xad, 0x90, 0xff, 0xbd, 0x72, 0x4f, 0x1d, 0x3e, 0x5c, 0x61, 0x82, 0xbe,
  0xaf, 0xba, 0xc5, 0xbd, 0x6e, 0x1e, 0x0d, 0x3e, 0xb8, 0x59, 0xe1, 0xbe,
  0x50, 0x92, 0x59, 0x3b, 0xdf, 0x63, 0x5c, 0x3e, 0xbd, 0x78, 0x3e, 0x3d,
  0x85, 0xf6, 0xdf, 0x3d, 0xd5, 0x44, 0x8d, 0x3e, 0xd2, 0x20, 0xd3, 0xbe,
  0x77, 0xb0, 0x39, 0xbc, 0x49, 0xd9, 0x73, 0x3e, 0x92, 0x8e, 0xd0, 0xbd,
  0xc5, 0x0a, 0xf5, 0x3d, 0x10, 0xf4, 0x50, 0x3c, 0xdc, 0x35, 0xbe, 0x3d,
  0xbd, 0x14, 0x7a, 0xbe, 0x23, 0xb9, 0xb6, 0x3d, 0xe7, 0x36, 0x7d, 0x3e,
  0x67, 0x07, 0xff, 0xbd, 0x43, 0xac, 0x39, 0xbe, 0x0c, 0x5f, 0x87, 0xbd,
  0x59, 0x1b, 0x8b, 0xbd, 0x12, 0xa5, 0x0a, 0x3e, 0xa1, 0xa8, 0x14, 0xbe,
  0x75, 0x53, 0x7b, 0xbd, 0xeb, 0x00, 0x8f, 0x3e, 0xdd, 0xe0, 0xd6, 0xbd,
  0xa7, 0x3f, 0xb8, 0xbd, 0x1f, 0xc0, 0x1c, 0xbe, 0x20, 0x8f, 0xff, 0xbc,
  0x19, 0x32, 0x07, 0xbf, 0xea, 0xb9, 0x55, 0xbc, 0x8d, 0xef, 0x09, 0x3e,
  0x9e, 0xd0, 0xd7, 0x3d, 0xf8, 0xf4, 0xb9, 0xbd, 0x09, 0x07, 0x2e, 0xbf,
  0x25, 0x48, 0x9d, 0xbe, 0x5a, 0x25, 0x1d, 0xbf, 0x17, 0x1e, 0x47, 0xbe,
  0x75, 0x1b, 0x9c, 0xbd, 0xaf, 0xf2, 0x23, 0x3d, 0x2c, 0x36, 0x2f, 0x3d,
  0x91, 0x11, 0x41, 0x3c, 0x7c, 0x1b, 0x14, 0xbe, 0x4e, 0x28, 0xec, 0xbd,
  0x3a, 0xe3, 0xbe, 0x3b, 0x41, 0x63, 0x2e, 0xbd, 0x21, 0x0a, 0x2e, 0xbd,
  0x39, 0xb8, 0x2d, 0xbf, 0xc2, 0xed, 0x4e, 0xbe, 0x5f, 0x3e, 0xca, 0xbd,
  0xd6, 0x9c, 0xb4, 0xbe, 0x05, 0x86, 0xa6, 0xbe, 0x0a, 0x5a, 0x33, 0xbf,
  0xb6, 0x71, 0x00, 0xbf, 0xa9, 0xf3, 0x3a, 0xbe, 0x7c, 0x09, 0x40, 0x3c,
  0x8e, 0x30, 0xf6, 0xbd, 0x1b, 0xe9, 0xa4, 0xbe, 0x58, 0xa0, 0xaa, 0xbd,
  0x51, 0xa7, 0xfc, 0xbd, 0x92, 0xbd, 0xb0, 0xbc, 0x01, 0x22, 0x42, 0x3d,
  0x54, 0x2e, 0x8c, 0x3e, 0x8b, 0xcf, 0x18, 0xbf, 0x69, 0x6d, 0x92, 0x3e,
  0xb9, 0x5f, 0xba, 0xbd, 0xa3, 0xb2, 0xe9, 0xbc, 0x52, 0x7d, 0x87, 0xbc,
  0x16, 0x1e, 0xcb, 0xbd, 0x37, 0x53, 0xdb, 0xbd, 0xfe, 0x87, 0xe3, 0x3e,
  0xeb, 0x2d, 0x1d, 0xbd, 0x71, 0x7c, 0x92, 0xbd, 0x3c, 0xba, 0xc0, 0x3d,
  0x16, 0x94, 0x42, 0xbd, 0xbe, 0x9f, 0xcf, 0x3c, 0xdd, 0x0c, 0x64, 0xbc,
  0x52, 0xcd, 0x9e, 0x3d, 0xd9, 0x5f, 0x26, 0x3e, 0x99, 0xc7, 0x1e, 0xbd,
  0x15, 0x7b, 0x0f, 0x3e, 0x59, 0x8b, 0x94, 0xbe, 0xce, 0xdc, 0x01, 0xbd,
  0xbc, 0xa5, 0x05, 0x3e, 0x0e, 0x4f, 0xd7, 0xbc, 0x45, 0x86, 0x88, 0x3d,
  0x94, 0x59, 0x5d, 0x3e, 0x4f, 0xef, 0xc7, 0xbd, 0xab, 0x9b, 0x43, 0x3d,
  0x0b, 0xf9, 0xdb, 0x3d, 0x17, 0x4c, 0x42, 0xbb, 0xed, 0xf8, 0x44, 0x3e,
  0x9e, 0x32, 0xca, 0xbb, 0xc1, 0x24, 0xa8, 0x3d, 0x22, 0xf0, 0x57, 0x3d,
  0x7f, 0x2f, 0xc0, 0xbc, 0xfc, 0xff, 0xb0, 0x3b, 0x44, 0xf5, 0xc6, 0xbd,
  0x4b, 0x90, 0x44, 0x3d, 0x5b, 0x3d, 0x6d, 0x39, 0x67, 0x8e, 0xe2, 0x3c,
  0xa0, 0x6d, 0xc0, 0x3c, 0x65, 0xe6, 0xae, 0x3d, 0x42, 0xca, 0x88, 0xbb,
  0x13, 0x29, 0xd0, 0xbc, 0xac, 0xad, 0xdd, 0x3d, 0xeb, 0x7a, 0xa8, 0x3d,
  0xcf, 0xae, 0x9b, 0x3b, 0xdd, 0x86, 0xed, 0x3d, 0x01, 0xdd, 0x55, 0xbe,
  0xfc, 0xd2, 0xbe, 0x3b, 0x93, 0x8a, 0x70, 0xbe, 0x13, 0x46, 0x1b, 0xbe,
  0x79, 0x18, 0x32, 0xbe, 0x2f, 0x72, 0xe3, 0xbd, 0x76, 0x17, 0x57, 0xbe,
  0xeb, 0xfb, 0x91, 0x3d, 0x8d, 0x22, 0x8c, 0x3c, 0x2d, 0xf6, 0x7b, 0xbd,
  0xb7, 0x60, 0xa4, 0xbd, 0xe4, 0x71, 0xda, 0xbc, 0x6b, 0x67, 0x8a, 0xbe,
  0x32, 0xb1, 0x95, 0xbd, 0x14, 0x92, 0xc6, 0xbd, 0x7d, 0x1a, 0xbf, 0xbe,
  0xa6, 0x9e, 0x82, 0x3d, 0xe4, 0x05, 0x54, 0xbe, 0x97, 0xab, 0x57, 0xbe,
  0x84, 0x0d, 0x27, 0xbe, 0x2b, 0x0d, 0x8a, 0xbe, 0xf6, 0x36, 0x34, 0xbe,
  0x8a, 0x4a, 0x57, 0xbe, 0xd5, 0xb4, 0x87, 0xbe, 0xd8, 0x4f, 0x91, 0xbd,
  0xe2, 0x6d, 0xd0, 0x3d, 0x1e, 0x1c, 0x59, 0x3c, 0x78, 0x47, 0xa0, 0xbd,
  0x01, 0xd6, 0x98, 0xba, 0xb7, 0x4f, 0x04, 0x3e, 0x78, 0x90, 0x9d, 0x3d,
  0x63, 0x40, 0x26, 0xbe, 0xb1, 0xaf, 0xd0, 0x3d, 0xb9, 0xa9, 0x22, 0x3d,
  0x90, 0x2c, 0x02, 0x3c, 0x71, 0x74, 0xa5, 0xba, 0x62, 0xdb, 0x8e, 0xbd,
  0xf3, 0xec, 0x29, 0xbd, 0x38, 0x68, 0x0c, 0xbd, 0x79, 0x96, 0x5a, 0xbe,
  0xd3, 0x8f, 0x74, 0xbe, 0x29, 0xd0, 0xd1, 0x3d, 0xde, 0x05, 0x93, 0xbe,
  0xf5, 0x18, 0xb2, 0x3d, 0xa7, 0x04, 0x9c, 0x3d, 0x8f, 0xbb, 0x7b, 0xbd,
  0x5c, 0x59, 0x80, 0xbe, 0x1a, 0x0e, 0x00, 0xbe, 0x4f, 0x24, 0xdb, 0xbc,
  0x46, 0xa3, 0x10, 0x3e, 0xee, 0x14, 0x8f, 0xbd, 0x83, 0xf0, 0x96, 0x3d,
  0x95, 0x04, 0x31, 0xbe, 0x02, 0xdd, 0x35, 0x3e, 0x6b, 0x22, 0x2c, 0xbe,
  0xd4, 0x4e, 0xfc, 0xbd, 0x00, 0x62, 0x11, 0xbd, 0x67, 0x70, 0x9d, 0xbd,
  0xb1, 0x49, 0xa6, 0xbc, 0x61, 0x70, 0x77, 0xbe, 0xdb, 0x3e, 0x19, 0x3d,
  0xaf, 0xd3, 0xb5, 0x3c, 0x03, 0x2f, 0x45, 0xbe, 0xbf, 0x2b, 0x8a, 0xbc,
  0x43, 0x0c, 0x77, 0x3d, 0xa3, 0x94, 0x14, 0xbe, 0x1a, 0x3e, 0xa8, 0xbc,
  0x1c, 0x13, 0x4d, 0xbd, 0xee, 0x80, 0xf2, 0x3d, 0x59, 0x22, 0x93, 0xbd,
  0x9c, 0x3c, 0xb8, 0x3d, 0xfd, 0xbe, 0xb4, 0xbb, 0x02, 0xc1, 0x3e, 0xbc,
  0xb0, 0xff, 0xfc, 0x3c, 0x89, 0x9d, 0xab, 0xbe, 0xa3, 0xd4, 0x12, 0xbc,
  0xd8, 0x30, 0x5d, 0xbe, 0xf6, 0x53, 0xe2, 0xbd, 0x7c, 0xf5, 0x74, 0xbc,
  0x54, 0xa6, 0x1e, 0xbe, 0x2f, 0x53, 0x9f, 0xbd, 0x10, 0x27, 0x74, 0xbe,
  0x62, 0xa0, 0xcf, 0xbd, 0xf2, 0x22, 0x50, 0xbd, 0x0e, 0xb1, 0x7f, 0x3c,
  0x59, 0xde, 0xe7, 0xbd, 0x32, 0xdf, 0x35, 0xbe, 0xbf, 0x97, 0xb3, 0x3d,
  0x0a, 0x67, 0x71, 0xbe, 0xf3, 0x7f, 0xb4, 0x3c, 0x04, 0xeb, 0x38, 0xbe,
  0x38, 0xe7, 0xfa, 0x38, 0x8d, 0x85, 0x1f, 0x3e, 0xad, 0xcb, 0x02, 0x3e,
  0xc4, 0x03, 0xe0, 0x3c, 0xd1, 0xb3, 0x64, 0xbd, 0x1c, 0x31, 0x7f, 0xbe,
  0x73, 0x7a, 0x07, 0xbe, 0x82, 0xd6, 0x3d, 0xbd, 0xce, 0xc8, 0x2e, 0xbe,
  0x36, 0xbc, 0x16, 0x3e, 0xaa, 0xc1, 0x44, 0x3e, 0x40, 0x74, 0xa5, 0xbe,
  0xb0, 0xdf, 0x62, 0xbe, 0xa4, 0x50, 0xf5, 0xbd, 0x09, 0xf2, 0xd3, 0xbd,
  0x1d, 0x4b, 0x42, 0xbd, 0xa9, 0x87, 0x93, 0xbd, 0x3c, 0x1d, 0x74, 0x3d,
  0x9d, 0x9c, 0xc5, 0x3d, 0x7a, 0xaa, 0x48, 0xbe, 0x26, 0x5e, 0x2a, 0x3d,
  0xda, 0xfd, 0xff, 0xff, 0x10, 0x00, 0x00, 0x00, 0x07, 0x00, 0x00, 0x00,
  0x14, 0x00, 0x00, 0x00, 0x2c, 0x00, 0x00, 0x00, 0x02, 0x00, 0x00, 0x00,
  0x10, 0x00, 0x00, 0x00, 0x70, 0x00, 0x00, 0x00, 0x17, 0x00, 0x00, 0x00,
  0x73, 0x65, 0x71, 0x75, 0x65, 0x6e, 0x74, 0x69, 0x61, 0x6c, 0x2f, 0x64,
  0x65, 0x6e, 0x73, 0x65, 0x2f, 0x4d, 0x61, 0x74, 0x4d, 0x75, 0x6c, 0x00,
  0x58, 0xfd, 0xff, 0xff, 0x3a, 0xfe, 0xff, 0xff, 0x04, 0x00, 0x00, 0x00,
  0x08, 0x00, 0x00, 0x00, 0xff, 0xff, 0xff, 0xff, 0x70, 0x00, 0x00, 0x00,
  0x00, 0x00, 0x0e, 0x00, 0x18, 0x00, 0x08, 0x00, 0x07, 0x00, 0x0c, 0x00,
  0x10, 0x00, 0x14, 0x00, 0x0e, 0x00, 0x00, 0x00, 0x00, 0x00, 0x00, 0x02,
  0x10, 0x00, 0x00, 0x00, 0x06, 0x00, 0x00, 0x00, 0x10, 0x00, 0x00, 0x00,
  0x2c, 0x00, 0x00, 0x00, 0x01, 0x00, 0x00, 0x00, 0x02, 0x00, 0x00, 0x00,
  0x18, 0x00, 0x00, 0x00, 0x73, 0x65, 0x71, 0x75, 0x65, 0x6e, 0x74, 0x69,
  0x61, 0x6c, 0x2f, 0x66, 0x6c, 0x61, 0x74, 0x74, 0x65, 0x6e, 0x2f, 0x43,
  0x6f, 0x6e, 0x73, 0x74, 0x00, 0x00, 0x00, 0x00, 0xc0, 0xfd, 0xff, 0xff,
  0xa2, 0xfe, 0xff, 0xff, 0x04, 0x00, 0x00, 0x00, 0x20, 0x00, 0x00, 0x00,
  0xe1, 0xa5, 0x3b, 0x3e, 0x16, 0xe0, 0x34, 0xc0, 0x81, 0x37, 0x02, 0xc0,
  0xf7, 0xc3, 0x0a, 0xbd, 0xcb, 0xda, 0x60, 0xbf, 0x11, 0x94, 0x50, 0xc0,
  0x77, 0xaa, 0xbd, 0xbe, 0x02, 0x61, 0x1b, 0xc0, 0xae, 0xfe, 0xff, 0xff,
  0x10, 0x00, 0x00, 0x00, 0x05, 0x00, 0x00, 0x00, 0x10, 0x00, 0x00, 0x00,
  0x1c, 0x00, 0x00, 0x00, 0x01, 0x00, 0x00, 0x00, 0x08, 0x00, 0x00, 0x00,
  0x0b, 0x00, 0x00, 0x00, 0x63, 0x6f, 0x6e, 0x76, 0x32, 0x64, 0x2f, 0x62,
  0x69, 0x61, 0x73, 0x00, 0x1c, 0xfe, 0xff, 0xff, 0xfe, 0xfe, 0xff, 0xff,
  0x04, 0x00, 0x00, 0x00, 0x40, 0x00, 0x00, 0x00, 0x7f, 0xc2, 0x1e, 0xc0,
  0xb8, 0x65, 0x05, 0x40, 0x92, 0x5c, 0xec, 0x3f, 0xd3, 0xa5, 0xca, 0xbf,
  0xb9, 0xae, 0xdc, 0x3c, 0x37, 0xd2, 0xb8, 0xbf, 0x6b, 0x32, 0x29, 0xc0,
  0x1d, 0x4c, 0x10, 0xc0, 0x6b, 0x34, 0x95, 0x3d, 0xa8, 0x76, 0xf9, 0xbf,
  0x3b, 0x8a, 0x9a, 0x3e, 0xc8, 0x5c, 0xf2, 0xbf, 0xe2, 0x2d, 0x93, 0xbd,
  0x89, 0x05, 0x0c, 0xc0, 0x36, 0xd9, 0xb1, 0xbc, 0xb8, 0x0e, 0xda, 0x3f,
  0x2a, 0xff, 0xff, 0xff, 0x10, 0x00, 0x00, 0x00, 0x04, 0x00, 0x00, 0x00,
  0x10, 0x00, 0x00, 0x00, 0x20, 0x00, 0x00, 0x00, 0x01, 0x00, 0x00, 0x00,
  0x10, 0x00, 0x00, 0x00, 0x0d, 0x00, 0x00, 0x00, 0x63, 0x6f, 0x6e, 0x76,
  0x32, 0x64, 0x5f, 0x31, 0x2f, 0x62, 0x69, 0x61, 0x73, 0x00, 0x00, 0x00,
  0x9c, 0xfe, 0xff, 0xff, 0x7e, 0xff, 0xff, 0xff, 0x04, 0x00, 0x00, 0x00,
  0x40, 0x00, 0x00, 0x00, 0xe6, 0xfb, 0x1c, 0xbf, 0x65, 0xfe, 0x42, 0xbe,
  0x46, 0x44, 0x8a, 0xbe, 0x63, 0xe4, 0x35, 0xbf, 0xda, 0x22, 0x2e, 0xbe,
  0xda, 0x56, 0x1e, 0x40, 0xaa, 0xc5, 0x8f, 0xbe, 0x6a, 0x1d, 0x36, 0x40,
  0x76, 0xe3, 0xa8, 0x3f, 0x91, 0xe8, 0x3a, 0xbe, 0x1c, 0x5f, 0x0f, 0x40,
  0x63, 0x56, 0xfb, 0x3f, 0xe1, 0x56, 0xa3, 0xbf, 0x48, 0xd7, 0x1d, 0xc0,
  0xbc, 0x23, 0x91, 0xbf, 0x16, 0xbe, 0x4e, 0xbe, 0xaa, 0xff, 0xff, 0xff,
  0x10, 0x00, 0x00, 0x00, 0x03, 0x00, 0x00, 0x00, 0x10, 0x00, 0x00, 0x00,
  0x20, 0x00, 0x00, 0x00, 0x01, 0x00, 0x00, 0x00, 0x10, 0x00, 0x00, 0x00,
  0x0a, 0x00, 0x00, 0x00, 0x64, 0x65, 0x6e, 0x73, 0x65, 0x2f, 0x62, 0x69,
  0x61, 0x73, 0x00, 0x00, 0x04, 0x00, 0x06, 0x00, 0x04, 0x00, 0x00, 0x00,
  0x00, 0x00, 0x06, 0x00, 0x08, 0x00, 0x04, 0x00, 0x06, 0x00, 0x00, 0x00,
  0x04, 0x00, 0x00, 0x00, 0x0c, 0x00, 0x00, 0x00, 0xf8, 0xde, 0xb8, 0x3f,
  0x6e, 0x2c, 0xbe, 0xbf, 0x81, 0x62, 0x85, 0xbf, 0x00, 0x00, 0x0e, 0x00,
  0x14, 0x00, 0x04, 0x00, 0x00, 0x00, 0x08, 0x00, 0x0c, 0x00, 0x10, 0x00,
  0x0e, 0x00, 0x00, 0x00, 0x10, 0x00, 0x00, 0x00, 0x02, 0x00, 0x00, 0x00,
  0x10, 0x00, 0x00, 0x00, 0x20, 0x00, 0x00, 0x00, 0x01, 0x00, 0x00, 0x00,
  0x03, 0x00, 0x00, 0x00, 0x0c, 0x00, 0x00, 0x00, 0x64, 0x65, 0x6e, 0x73,
  0x65, 0x5f, 0x31, 0x2f, 0x62, 0x69, 0x61, 0x73, 0x00, 0x00, 0x00, 0x00,
  0x80, 0xff, 0xff, 0xff, 0x14, 0x00, 0x18, 0x00, 0x04, 0x00, 0x00, 0x00,
  0x08, 0x00, 0x0c, 0x00, 0x10, 0x00, 0x00, 0x00, 0x00, 0x00, 0x14, 0x00,
  0x14, 0x00, 0x00, 0x00, 0x14, 0x00, 0x00, 0x00, 0x01, 0x00, 0x00, 0x00,
  0x20, 0x00, 0x00, 0x00, 0x54, 0x00, 0x00, 0x00, 0x3c, 0x00, 0x00, 0x00,
  0x04, 0x00, 0x00, 0x00, 0x01, 0x00, 0x00, 0x00, 0x40, 0x00, 0x00, 0x00,
  0x03, 0x00, 0x00, 0x00, 0x01, 0x00, 0x00, 0x00, 0x1e, 0x00, 0x00, 0x00,
  0x73, 0x65, 0x72, 0x76, 0x69, 0x6e, 0x67, 0x5f, 0x64, 0x65, 0x66, 0x61,
  0x75, 0x6c, 0x74, 0x5f, 0x63, 0x6f, 0x6e, 0x76, 0x32, 0x64, 0x5f, 0x69,
  0x6e, 0x70, 0x75, 0x74, 0x3a, 0x30, 0x00, 0x00, 0x04, 0x00, 0x00, 0x00,
  0xff, 0xff, 0xff, 0xff, 0x40, 0x00, 0x00, 0x00, 0x03, 0x00, 0x00, 0x00,
  0x01, 0x00, 0x00, 0x00, 0xfc, 0xff, 0xff, 0xff, 0x04, 0x00, 0x04, 0x00,
  0x04, 0x00, 0x00, 0x00
};

unsigned int model_tflite_len = 12988;// Fill the int in `src/model.cc` here
